
/* Copyright 2019 The TensorFlow Authors. All Rights Reserved.

Licensed under the Apache License, Version 2.0 (the "License");
you may not use this file except in compliance with the License.
You may obtain a copy of the License at

    http://www.apache.org/licenses/LICENSE-2.0

Unless required by applicable law or agreed to in writing, software
distributed under the License is distributed on an "AS IS" BASIS,
WITHOUT WARRANTIES OR CONDITIONS OF ANY KIND, either express or implied.
See the License for the specific language governing permissions and
limitations under the License.
==============================================================================*/

// This is a TensorFlow Lite model file that has been converted into a C data
// array using the tensorflow.lite.util.convert_bytes_to_c_source() function.
// This form is useful for compiling into a binary for devices that don't have a
// file system.

#include "person_detect_model_data.h"

// Keep model aligned to 8 bytes to guarantee aligned 64-bit accesses.
alignas(8) const unsigned char g_person_detect_model_data[] = {
  
  0x1c, 0x00, 0x00, 0x00, 0x54, 0x46, 0x4c, 0x33, 0x14, 0x00, 0x20, 0x00,
  0x04, 0x00, 0x08, 0x00, 0x0c, 0x00, 0x10, 0x00, 0x14, 0x00, 0x00, 0x00,
  0x18, 0x00, 0x1c, 0x00, 0x14, 0x00, 0x00, 0x00, 0x03, 0x00, 0x00, 0x00,
  0x78, 0x00, 0x00, 0x00, 0x6c, 0x00, 0x00, 0x00, 0xe0, 0x00, 0x00, 0x00,
  0x0c, 0x00, 0x00, 0x00, 0x88, 0x00, 0x00, 0x00, 0x80, 0x00, 0x00, 0x00,
  0x15, 0x00, 0x00, 0x00, 0x40, 0x30, 0x00, 0x00, 0x3c, 0x30, 0x00, 0x00,
  0x5c, 0x2f, 0x00, 0x00, 0x90, 0x2e, 0x00, 0x00, 0x20, 0x2e, 0x00, 0x00,
  0xa8, 0x2d, 0x00, 0x00, 0x00, 0x2d, 0x00, 0x00, 0xb0, 0x2a, 0x00, 0x00,
  0x48, 0x1a, 0x00, 0x00, 0xec, 0x10, 0x00, 0x00, 0x40, 0x09, 0x00, 0x00,
  0x14, 0x30, 0x00, 0x00, 0x10, 0x30, 0x00, 0x00, 0x0c, 0x30, 0x00, 0x00,
  0x08, 0x30, 0x00, 0x00, 0x04, 0x30, 0x00, 0x00, 0x00, 0x30, 0x00, 0x00,
  0xfc, 0x2f, 0x00, 0x00, 0xf8, 0x2f, 0x00, 0x00, 0xf4, 0x2f, 0x00, 0x00,
  0x60, 0x00, 0x00, 0x00, 0x01, 0x00, 0x00, 0x00, 0x98, 0x00, 0x00, 0x00,
  0x06, 0x00, 0x00, 0x00, 0x04, 0x08, 0x00, 0x00, 0x1c, 0x07, 0x00, 0x00,
  0xb8, 0x05, 0x00, 0x00, 0x84, 0x02, 0x00, 0x00, 0xd4, 0x01, 0x00, 0x00,
  0x48, 0x01, 0x00, 0x00, 0x00, 0x00, 0x00, 0x00, 0x01, 0x00, 0x00, 0x00,
  0x0c, 0x00, 0x00, 0x00, 0x08, 0x00, 0x0c, 0x00, 0x04, 0x00, 0x08, 0x00,
  0x08, 0x00, 0x00, 0x00, 0x08, 0x00, 0x00, 0x00, 0x14, 0x00, 0x00, 0x00,
  0x13, 0x00, 0x00, 0x00, 0x6d, 0x69, 0x6e, 0x5f, 0x72, 0x75, 0x6e, 0x74,
  0x69, 0x6d, 0x65, 0x5f, 0x76, 0x65, 0x72, 0x73, 0x69, 0x6f, 0x6e, 0x00,
  0x52, 0xd1, 0xff, 0xff, 0x04, 0x00, 0x00, 0x00, 0x10, 0x00, 0x00, 0x00,
  0x31, 0x2e, 0x31, 0x34, 0x2e, 0x30, 0x00, 0x00, 0x00, 0x00, 0x00, 0x00,
  0x00, 0x00, 0x00, 0x00, 0x0f, 0x00, 0x00, 0x00, 0x4d, 0x4c, 0x49, 0x52,
  0x20, 0x43, 0x6f, 0x6e, 0x76, 0x65, 0x72, 0x74, 0x65, 0x64, 0x2e, 0x00,
  0x00, 0x00, 0x0e, 0x00, 0x18, 0x00, 0x04, 0x00, 0x08, 0x00, 0x0c, 0x00,
  0x10, 0x00, 0x14, 0x00, 0x0e, 0x00, 0x00, 0x00, 0x58, 0x00, 0x00, 0x00,
  0x4c, 0x00, 0x00, 0x00, 0x40, 0x00, 0x00, 0x00, 0x14, 0x00, 0x00, 0x00,
  0x04, 0x00, 0x00, 0x00, 0x04, 0x00, 0x00, 0x00, 0x6d, 0x61, 0x69, 0x6e,
  0x00, 0x00, 0x00, 0x00, 0x09, 0x00, 0x00, 0x00, 0xf8, 0x06, 0x00, 0x00,
  0x14, 0x06, 0x00, 0x00, 0xac, 0x04, 0x00, 0x00, 0xf8, 0x03, 0x00, 0x00,
  0xdc, 0x02, 0x00, 0x00, 0x28, 0x02, 0x00, 0x00, 0x9c, 0x01, 0x00, 0x00,
  0xdc, 0x00, 0x00, 0x00, 0x64, 0x00, 0x00, 0x00, 0x01, 0x00, 0x00, 0x00,
  0x12, 0x00, 0x00, 0x00, 0x01, 0x00, 0x00, 0x00, 0x00, 0x00, 0x00, 0x00,
  0x13, 0x00, 0x00, 0x00, 0x90, 0x2e, 0x00, 0x00, 0x34, 0x2e, 0x00, 0x00,
  0xa0, 0x2d, 0x00, 0x00, 0xe8, 0x2c, 0x00, 0x00, 0x78, 0x2c, 0x00, 0x00,
  0x00, 0x2c, 0x00, 0x00, 0x70, 0x2b, 0x00, 0x00, 0x08, 0x29, 0x00, 0x00,
  0xac, 0x18, 0x00, 0x00, 0xc0, 0x0e, 0x00, 0x00, 0xfc, 0x06, 0x00, 0x00,
  0x14, 0x06, 0x00, 0x00, 0xb0, 0x04, 0x00, 0x00, 0xd8, 0x03, 0x00, 0x00,
  0xb8, 0x02, 0x00, 0x00, 0x08, 0x02, 0x00, 0x00, 0x70, 0x01, 0x00, 0x00,
  0xc0, 0x00, 0x00, 0x00, 0x34, 0x00, 0x00, 0x00, 0xda, 0xfe, 0xff, 0xff,
  0x05, 0x00, 0x00, 0x00, 0x10, 0x00, 0x00, 0x00, 0x04, 0x00, 0x00, 0x00,
  0x01, 0x00, 0x00, 0x00, 0x12, 0x00, 0x00, 0x00, 0x01, 0x00, 0x00, 0x00,
  0x11, 0x00, 0x00, 0x00, 0x64, 0xf9, 0xff, 0xff, 0x0e, 0x00, 0x00, 0x00,
  0x00, 0x00, 0x00, 0x0e, 0x01, 0x00, 0x00, 0x00, 0x00, 0xd2, 0xff, 0xff,
  0x30, 0x00, 0x00, 0x00, 0x13, 0x00, 0x00, 0x00, 0x18, 0x00, 0x00, 0x00,
  0x30, 0x00, 0x00, 0x00, 0x04, 0x00, 0x00, 0x00, 0x02, 0x00, 0x00, 0x00,
  0xff, 0xff, 0xff, 0xff, 0x02, 0x00, 0x00, 0x00, 0x08, 0x00, 0x00, 0x00,
  0x49, 0x64, 0x65, 0x6e, 0x74, 0x69, 0x74, 0x79, 0x00, 0x00, 0x00, 0x00,
  0x02, 0x00, 0x00, 0x00, 0x01, 0x00, 0x00, 0x00, 0x02, 0x00, 0x00, 0x00,
  0xd0, 0xd1, 0xff, 0xff, 0x02, 0xfd, 0xff, 0xff, 0x00, 0x00, 0x00, 0x08,
  0x04, 0x00, 0x00, 0x00, 0x18, 0x00, 0x00, 0x00, 0x0c, 0x00, 0x00, 0x00,
  0x04, 0x00, 0x00, 0x00, 0xec, 0xd1, 0xff, 0xff, 0x01, 0x00, 0x00, 0x00,
  0x11, 0x00, 0x00, 0x00, 0x03, 0x00, 0x00, 0x00, 0x10, 0x00, 0x00, 0x00,
  0x06, 0x00, 0x00, 0x00, 0x03, 0x00, 0x00, 0x00, 0xec, 0xf9, 0xff, 0xff,
  0x09, 0x00, 0x00, 0x00, 0x00, 0x00, 0x00, 0x09, 0x01, 0x00, 0x00, 0x00,
  0x88, 0xd2, 0xff, 0xff, 0x58, 0x00, 0x00, 0x00, 0x12, 0x00, 0x00, 0x00,
  0x18, 0x00, 0x00, 0x00, 0x58, 0x00, 0x00, 0x00, 0x04, 0x00, 0x00, 0x00,
  0x02, 0x00, 0x00, 0x00, 0xff, 0xff, 0xff, 0xff, 0x02, 0x00, 0x00, 0x00,
  0x30, 0x00, 0x00, 0x00, 0x73, 0x65, 0x71, 0x75, 0x65, 0x6e, 0x74, 0x69,
  0x61, 0x6c, 0x2f, 0x64, 0x65, 0x6e, 0x73, 0x65, 0x2f, 0x4d, 0x61, 0x74,
  0x4d, 0x75, 0x6c, 0x3b, 0x73, 0x65, 0x71, 0x75, 0x65, 0x6e, 0x74, 0x69,
  0x61, 0x6c, 0x2f, 0x64, 0x65, 0x6e, 0x73, 0x65, 0x2f, 0x42, 0x69, 0x61,
  0x73, 0x41, 0x64, 0x64, 0x00, 0x00, 0x00, 0x00, 0x02, 0x00, 0x00, 0x00,
  0x01, 0x00, 0x00, 0x00, 0x02, 0x00, 0x00, 0x00, 0x68, 0xd3, 0xff, 0xff,
  0x00, 0x00, 0x0a, 0x00, 0x10, 0x00, 0x04, 0x00, 0x08, 0x00, 0x0c, 0x00,
  0x0a, 0x00, 0x00, 0x00, 0x03, 0x00, 0x00, 0x00, 0x10, 0x00, 0x00, 0x00,
  0x04, 0x00, 0x00, 0x00, 0x01, 0x00, 0x00, 0x00, 0x10, 0x00, 0x00, 0x00,
  0x02, 0x00, 0x00, 0x00, 0x0f, 0x00, 0x00, 0x00, 0x01, 0x00, 0x00, 0x00,
  0x98, 0xfa, 0xff, 0xff, 0x16, 0x00, 0x00, 0x00, 0x00, 0x00, 0x00, 0x16,
  0x01, 0x00, 0x00, 0x00, 0x34, 0xd3, 0xff, 0xff, 0x40, 0x00, 0x00, 0x00,
  0x11, 0x00, 0x00, 0x00, 0x18, 0x00, 0x00, 0x00, 0x40, 0x00, 0x00, 0x00,
  0x04, 0x00, 0x00, 0x00, 0x02, 0x00, 0x00, 0x00, 0xff, 0xff, 0xff, 0xff,
  0x40, 0x00, 0x00, 0x00, 0x1a, 0x00, 0x00, 0x00, 0x73, 0x65, 0x71, 0x75,
  0x65, 0x6e, 0x74, 0x69, 0x61, 0x6c, 0x2f, 0x66, 0x6c, 0x61, 0x74, 0x74,
  0x65, 0x6e, 0x2f, 0x52, 0x65, 0x73, 0x68, 0x61, 0x70, 0x65, 0x00, 0x00,
  0x02, 0x00, 0x00, 0x00, 0x01, 0x00, 0x00, 0x00, 0x40, 0x00, 0x00, 0x00,
  0x14, 0xd3, 0xff, 0xff, 0x46, 0xfe, 0xff, 0xff, 0x00, 0x00, 0x00, 0x05,
  0x01, 0x00, 0x00, 0x00, 0x2c, 0x00, 0x00, 0x00, 0x20, 0x00, 0x00, 0x00,
  0x04, 0x00, 0x00, 0x00, 0x22, 0xfc, 0xff, 0xff, 0x02, 0x00, 0x00, 0x00,
  0x02, 0x00, 0x00, 0x00, 0x00, 0x00, 0x00, 0x01, 0x02, 0x00, 0x00, 0x00,
  0x02, 0x00, 0x00, 0x00, 0x01, 0x00, 0x00, 0x00, 0x0f, 0x00, 0x00, 0x00,
  0x01, 0x00, 0x00, 0x00, 0x0e, 0x00, 0x00, 0x00, 0xc8, 0xd3, 0xff, 0xff,
  0x54, 0x00, 0x00, 0x00, 0x10, 0x00, 0x00, 0x00, 0x20, 0x00, 0x00, 0x00,
  0x5c, 0x00, 0x00, 0x00, 0x04, 0x00, 0x00, 0x00, 0x04, 0x00, 0x00, 0x00,
  0xff, 0xff, 0xff, 0xff, 0x04, 0x00, 0x00, 0x00, 0x04, 0x00, 0x00, 0x00,
  0x04, 0x00, 0x00, 0x00, 0x26, 0x00, 0x00, 0x00, 0x73, 0x65, 0x71, 0x75,
  0x65, 0x6e, 0x74, 0x69, 0x61, 0x6c, 0x2f, 0x61, 0x76, 0x65, 0x72, 0x61,
  0x67, 0x65, 0x5f, 0x70, 0x6f, 0x6f, 0x6c, 0x69, 0x6e, 0x67, 0x32, 0x64,
  0x5f, 0x32, 0x2f, 0x41, 0x76, 0x67, 0x50, 0x6f, 0x6f, 0x6c, 0x00, 0x00,
  0x04, 0x00, 0x00, 0x00, 0x01, 0x00, 0x00, 0x00, 0x04, 0x00, 0x00, 0x00,
  0x04, 0x00, 0x00, 0x00, 0x04, 0x00, 0x00, 0x00, 0xc4, 0xd3, 0xff, 0xff,
  0x02, 0xfc, 0xff, 0xff, 0x00, 0x00, 0x00, 0x01, 0x24, 0x00, 0x00, 0x00,
  0x18, 0x00, 0x00, 0x00, 0x04, 0x00, 0x00, 0x00, 0xf4, 0xfb, 0xff, 0xff,
  0x01, 0x00, 0x00, 0x00, 0x01, 0x00, 0x00, 0x00, 0x00, 0x00, 0x00, 0x01,
  0x01, 0x00, 0x00, 0x00, 0x0e, 0x00, 0x00, 0x00, 0x03, 0x00, 0x00, 0x00,
  0x0d, 0x00, 0x00, 0x00, 0x08, 0x00, 0x00, 0x00, 0x04, 0x00, 0x00, 0x00,
  0x74, 0xd4, 0xff, 0xff, 0xb0, 0x00, 0x00, 0x00, 0x0f, 0x00, 0x00, 0x00,
  0x20, 0x00, 0x00, 0x00, 0xb8, 0x00, 0x00, 0x00, 0x04, 0x00, 0x00, 0x00,
  0x04, 0x00, 0x00, 0x00, 0xff, 0xff, 0xff, 0xff, 0x08, 0x00, 0x00, 0x00,
  0x08, 0x00, 0x00, 0x00, 0x04, 0x00, 0x00, 0x00, 0x83, 0x00, 0x00, 0x00,
  0x73, 0x65, 0x71, 0x75, 0x65, 0x6e, 0x74, 0x69, 0x61, 0x6c, 0x2f, 0x63,
  0x6f, 0x6e, 0x76, 0x32, 0x64, 0x5f, 0x32, 0x2f, 0x52, 0x65, 0x6c, 0x75,
  0x3b, 0x73, 0x65, 0x71, 0x75, 0x65, 0x6e, 0x74, 0x69, 0x61, 0x6c, 0x2f,
  0x63, 0x6f, 0x6e, 0x76, 0x32, 0x64, 0x5f, 0x32, 0x2f, 0x42, 0x69, 0x61,
  0x73, 0x41, 0x64, 0x64, 0x3b, 0x73, 0x65, 0x71, 0x75, 0x65, 0x6e, 0x74,
  0x69, 0x61, 0x6c, 0x2f, 0x63, 0x6f, 0x6e, 0x76, 0x32, 0x64, 0x5f, 0x32,
  0x2f, 0x43, 0x6f, 0x6e, 0x76, 0x32, 0x44, 0x3b, 0x73, 0x65, 0x71, 0x75,
  0x65, 0x6e, 0x74, 0x69, 0x61, 0x6c, 0x2f, 0x63, 0x6f, 0x6e, 0x76, 0x32,
  0x64, 0x5f, 0x32, 0x2f, 0x42, 0x69, 0x61, 0x73, 0x41, 0x64, 0x64, 0x2f,
  0x52, 0x65, 0x61, 0x64, 0x56, 0x61, 0x72, 0x69, 0x61, 0x62, 0x6c, 0x65,
  0x4f, 0x70, 0x2f, 0x72, 0x65, 0x73, 0x6f, 0x75, 0x72, 0x63, 0x65, 0x00,
  0x04, 0x00, 0x00, 0x00, 0x01, 0x00, 0x00, 0x00, 0x08, 0x00, 0x00, 0x00,
  0x08, 0x00, 0x00, 0x00, 0x04, 0x00, 0x00, 0x00, 0xb4, 0xd5, 0xff, 0xff,
  0x00, 0x00, 0x0e, 0x00, 0x18, 0x00, 0x08, 0x00, 0x0c, 0x00, 0x10, 0x00,
  0x07, 0x00, 0x14, 0x00, 0x0e, 0x00, 0x00, 0x00, 0x00, 0x00, 0x00, 0x05,
  0x01, 0x00, 0x00, 0x00, 0x2c, 0x00, 0x00, 0x00, 0x20, 0x00, 0x00, 0x00,
  0x04, 0x00, 0x00, 0x00, 0xea, 0xfd, 0xff, 0xff, 0x02, 0x00, 0x00, 0x00,
  0x02, 0x00, 0x00, 0x00, 0x00, 0x00, 0x00, 0x01, 0x02, 0x00, 0x00, 0x00,
  0x02, 0x00, 0x00, 0x00, 0x01, 0x00, 0x00, 0x00, 0x0d, 0x00, 0x00, 0x00,
  0x01, 0x00, 0x00, 0x00, 0x0c, 0x00, 0x00, 0x00, 0x90, 0xd5, 0xff, 0xff,
  0x54, 0x00, 0x00, 0x00, 0x0e, 0x00, 0x00, 0x00, 0x20, 0x00, 0x00, 0x00,
  0x5c, 0x00, 0x00, 0x00, 0x04, 0x00, 0x00, 0x00, 0x04, 0x00, 0x00, 0x00,
  0xff, 0xff, 0xff, 0xff, 0x08, 0x00, 0x00, 0x00, 0x08, 0x00, 0x00, 0x00,
  0x10, 0x00, 0x00, 0x00, 0x26, 0x00, 0x00, 0x00, 0x73, 0x65, 0x71, 0x75,
  0x65, 0x6e, 0x74, 0x69, 0x61, 0x6c, 0x2f, 0x61, 0x76, 0x65, 0x72, 0x61,
  0x67, 0x65, 0x5f, 0x70, 0x6f, 0x6f, 0x6c, 0x69, 0x6e, 0x67, 0x32, 0x64,
  0x5f, 0x31, 0x2f, 0x41, 0x76, 0x67, 0x50, 0x6f, 0x6f, 0x6c, 0x00, 0x00,
  0x04, 0x00, 0x00, 0x00, 0x01, 0x00, 0x00, 0x00, 0x08, 0x00, 0x00, 0x00,
  0x08, 0x00, 0x00, 0x00, 0x10, 0x00, 0x00, 0x00, 0x8c, 0xd5, 0xff, 0xff,
  0xaa, 0xfe, 0xff, 0xff, 0x00, 0x00, 0x00, 0x02, 0x02, 0x00, 0x00, 0x00,
  0x38, 0x00, 0x00, 0x00, 0x2c, 0x00, 0x00, 0x00, 0x14, 0x00, 0x00, 0x00,
  0x00, 0x00, 0x0e, 0x00, 0x14, 0x00, 0x00, 0x00, 0x08, 0x00, 0x0c, 0x00,
  0x04, 0x00, 0x13, 0x00, 0x0e, 0x00, 0x00, 0x00, 0x01, 0x00, 0x00, 0x00,
  0x03, 0x00, 0x00, 0x00, 0x03, 0x00, 0x00, 0x00, 0x00, 0x00, 0x00, 0x01,
  0x01, 0x00, 0x00, 0x00, 0x0c, 0x00, 0x00, 0x00, 0x03, 0x00, 0x00, 0x00,
  0x0b, 0x00, 0x00, 0x00, 0x07, 0x00, 0x00, 0x00, 0x02, 0x00, 0x00, 0x00,
  0xc8, 0xfd, 0xff, 0xff, 0x04, 0x00, 0x00, 0x00, 0x00, 0x00, 0x00, 0x04,
  0x01, 0x00, 0x00, 0x00, 0x64, 0xd6, 0xff, 0xff, 0xd4, 0x00, 0x00, 0x00,
  0x0d, 0x00, 0x00, 0x00, 0x20, 0x00, 0x00, 0x00, 0xdc, 0x00, 0x00, 0x00,
  0x04, 0x00, 0x00, 0x00, 0x04, 0x00, 0x00, 0x00, 0xff, 0xff, 0xff, 0xff,
  0x10, 0x00, 0x00, 0x00, 0x10, 0x00, 0x00, 0x00, 0x10, 0x00, 0x00, 0x00,
  0xa6, 0x00, 0x00, 0x00, 0x73, 0x65, 0x71, 0x75, 0x65, 0x6e, 0x74, 0x69,
  0x61, 0x6c, 0x2f, 0x64, 0x65, 0x70, 0x74, 0x68, 0x77, 0x69, 0x73, 0x65,
  0x5f, 0x63, 0x6f, 0x6e, 0x76, 0x32, 0x64, 0x2f, 0x52, 0x65, 0x6c, 0x75,
  0x3b, 0x73, 0x65, 0x71, 0x75, 0x65, 0x6e, 0x74, 0x69, 0x61, 0x6c, 0x2f,
  0x64, 0x65, 0x70, 0x74, 0x68, 0x77, 0x69, 0x73, 0x65, 0x5f, 0x63, 0x6f,
  0x6e, 0x76, 0x32, 0x64, 0x2f, 0x42, 0x69, 0x61, 0x73, 0x41, 0x64, 0x64,
  0x3b, 0x73, 0x65, 0x71, 0x75, 0x65, 0x6e, 0x74, 0x69, 0x61, 0x6c, 0x2f,
  0x64, 0x65, 0x70, 0x74, 0x68, 0x77, 0x69, 0x73, 0x65, 0x5f, 0x63, 0x6f,
  0x6e, 0x76, 0x32, 0x64, 0x2f, 0x64, 0x65, 0x70, 0x74, 0x68, 0x77, 0x69,
  0x73, 0x65, 0x3b, 0x73, 0x65, 0x71, 0x75, 0x65, 0x6e, 0x74, 0x69, 0x61,
  0x6c, 0x2f, 0x64, 0x65, 0x70, 0x74, 0x68, 0x77, 0x69, 0x73, 0x65, 0x5f,
  0x63, 0x6f, 0x6e, 0x76, 0x32, 0x64, 0x2f, 0x42, 0x69, 0x61, 0x73, 0x41,
  0x64, 0x64, 0x2f, 0x52, 0x65, 0x61, 0x64, 0x56, 0x61, 0x72, 0x69, 0x61,
  0x62, 0x6c, 0x65, 0x4f, 0x70, 0x2f, 0x72, 0x65, 0x73, 0x6f, 0x75, 0x72,
  0x63, 0x65, 0x00, 0x00, 0x04, 0x00, 0x00, 0x00, 0x01, 0x00, 0x00, 0x00,
  0x10, 0x00, 0x00, 0x00, 0x10, 0x00, 0x00, 0x00, 0x10, 0x00, 0x00, 0x00,
  0xc8, 0xd7, 0xff, 0xff, 0x00, 0x00, 0x0e, 0x00, 0x1a, 0x00, 0x08, 0x00,
  0x0c, 0x00, 0x10, 0x00, 0x07, 0x00, 0x14, 0x00, 0x0e, 0x00, 0x00, 0x00,
  0x00, 0x00, 0x00, 0x05, 0x01, 0x00, 0x00, 0x00, 0x3c, 0x00, 0x00, 0x00,
  0x30, 0x00, 0x00, 0x00, 0x14, 0x00, 0x00, 0x00, 0x00, 0x00, 0x0e, 0x00,
  0x18, 0x00, 0x0f, 0x00, 0x04, 0x00, 0x08, 0x00, 0x10, 0x00, 0x14, 0x00,
  0x0e, 0x00, 0x00, 0x00, 0x02, 0x00, 0x00, 0x00, 0x02, 0x00, 0x00, 0x00,
  0x00, 0x00, 0x00, 0x01, 0x02, 0x00, 0x00, 0x00, 0x02, 0x00, 0x00, 0x00,
  0x01, 0x00, 0x00, 0x00, 0x0b, 0x00, 0x00, 0x00, 0x01, 0x00, 0x00, 0x00,
  0x0a, 0x00, 0x00, 0x00, 0x28, 0xff, 0xff, 0xff, 0x01, 0x00, 0x00, 0x00,
  0x00, 0x00, 0x00, 0x01, 0x01, 0x00, 0x00, 0x00, 0xc4, 0xd7, 0xff, 0xff,
  0x54, 0x00, 0x00, 0x00, 0x0c, 0x00, 0x00, 0x00, 0x20, 0x00, 0x00, 0x00,
  0x5c, 0x00, 0x00, 0x00, 0x04, 0x00, 0x00, 0x00, 0x04, 0x00, 0x00, 0x00,
  0xff, 0xff, 0xff, 0xff, 0x30, 0x00, 0x00, 0x00, 0x30, 0x00, 0x00, 0x00,
  0x10, 0x00, 0x00, 0x00, 0x24, 0x00, 0x00, 0x00, 0x73, 0x65, 0x71, 0x75,
  0x65, 0x6e, 0x74, 0x69, 0x61, 0x6c, 0x2f, 0x61, 0x76, 0x65, 0x72, 0x61,
  0x67, 0x65, 0x5f, 0x70, 0x6f, 0x6f, 0x6c, 0x69, 0x6e, 0x67, 0x32, 0x64,
  0x2f, 0x41, 0x76, 0x67, 0x50, 0x6f, 0x6f, 0x6c, 0x00, 0x00, 0x00, 0x00,
  0x04, 0x00, 0x00, 0x00, 0x01, 0x00, 0x00, 0x00, 0x30, 0x00, 0x00, 0x00,
  0x30, 0x00, 0x00, 0x00, 0x10, 0x00, 0x00, 0x00, 0xa8, 0xd8, 0xff, 0xff,
  0x00, 0x00, 0x0e, 0x00, 0x14, 0x00, 0x00, 0x00, 0x08, 0x00, 0x0c, 0x00,
  0x07, 0x00, 0x10, 0x00, 0x0e, 0x00, 0x00, 0x00, 0x00, 0x00, 0x00, 0x01,
  0x30, 0x00, 0x00, 0x00, 0x24, 0x00, 0x00, 0x00, 0x10, 0x00, 0x00, 0x00,
  0x0c, 0x00, 0x10, 0x00, 0x00, 0x00, 0x04, 0x00, 0x08, 0x00, 0x0f, 0x00,
  0x0c, 0x00, 0x00, 0x00, 0x01, 0x00, 0x00, 0x00, 0x01, 0x00, 0x00, 0x00,
  0x00, 0x00, 0x00, 0x01, 0x01, 0x00, 0x00, 0x00, 0x0a, 0x00, 0x00, 0x00,
  0x03, 0x00, 0x00, 0x00, 0x00, 0x00, 0x00, 0x00, 0x09, 0x00, 0x00, 0x00,
  0x05, 0x00, 0x00, 0x00, 0x0c, 0x00, 0x10, 0x00, 0x0b, 0x00, 0x00, 0x00,
  0x0c, 0x00, 0x04, 0x00, 0x0c, 0x00, 0x00, 0x00, 0x03, 0x00, 0x00, 0x00,
  0x00, 0x00, 0x00, 0x03, 0x01, 0x00, 0x00, 0x00, 0xa8, 0xd8, 0xff, 0xff,
  0xd8, 0x00, 0x00, 0x00, 0x0b, 0x00, 0x00, 0x00, 0x20, 0x00, 0x00, 0x00,
  0xe0, 0x00, 0x00, 0x00, 0x04, 0x00, 0x00, 0x00, 0x04, 0x00, 0x00, 0x00,
  0xff, 0xff, 0xff, 0xff, 0x60, 0x00, 0x00, 0x00, 0x60, 0x00, 0x00, 0x00,
  0x10, 0x00, 0x00, 0x00, 0xaa, 0x00, 0x00, 0x00, 0x73, 0x65, 0x71, 0x75,
  0x65, 0x6e, 0x74, 0x69, 0x61, 0x6c, 0x2f, 0x63, 0x6f, 0x6e, 0x76, 0x32,
  0x64, 0x5f, 0x31, 0x2f, 0x52, 0x65, 0x6c, 0x75, 0x3b, 0x73, 0x65, 0x71,
  0x75, 0x65, 0x6e, 0x74, 0x69, 0x61, 0x6c, 0x2f, 0x63, 0x6f, 0x6e, 0x76,
  0x32, 0x64, 0x5f, 0x31, 0x2f, 0x42, 0x69, 0x61, 0x73, 0x41, 0x64, 0x64,
  0x3b, 0x73, 0x65, 0x71, 0x75, 0x65, 0x6e, 0x74, 0x69, 0x61, 0x6c, 0x2f,
  0x64, 0x65, 0x70, 0x74, 0x68, 0x77, 0x69, 0x73, 0x65, 0x5f, 0x63, 0x6f,
  0x6e, 0x76, 0x32, 0x64, 0x2f, 0x64, 0x65, 0x70, 0x74, 0x68, 0x77, 0x69,
  0x73, 0x65, 0x3b, 0x73, 0x65, 0x71, 0x75, 0x65, 0x6e, 0x74, 0x69, 0x61,
  0x6c, 0x2f, 0x63, 0x6f, 0x6e, 0x76, 0x32, 0x64, 0x5f, 0x31, 0x2f, 0x43,
  0x6f, 0x6e, 0x76, 0x32, 0x44, 0x3b, 0x73, 0x65, 0x71, 0x75, 0x65, 0x6e,
  0x74, 0x69, 0x61, 0x6c, 0x2f, 0x63, 0x6f, 0x6e, 0x76, 0x32, 0x64, 0x5f,
  0x31, 0x2f, 0x42, 0x69, 0x61, 0x73, 0x41, 0x64, 0x64, 0x2f, 0x52, 0x65,
  0x61, 0x64, 0x56, 0x61, 0x72, 0x69, 0x61, 0x62, 0x6c, 0x65, 0x4f, 0x70,
  0x2f, 0x72, 0x65, 0x73, 0x6f, 0x75, 0x72, 0x63, 0x65, 0x31, 0x00, 0x00,
  0x04, 0x00, 0x00, 0x00, 0x01, 0x00, 0x00, 0x00, 0x60, 0x00, 0x00, 0x00,
  0x60, 0x00, 0x00, 0x00, 0x10, 0x00, 0x00, 0x00, 0x28, 0xd9, 0xff, 0xff,
  0x0a, 0xda, 0xff, 0xff, 0x04, 0x00, 0x00, 0x00, 0xc0, 0x06, 0x00, 0x00,
  0xe2, 0x65, 0xc9, 0x39, 0xbe, 0xfe, 0x45, 0x3a, 0x0a, 0x74, 0x92, 0x39,
  0x82, 0x72, 0x59, 0x39, 0x2e, 0x12, 0xa9, 0xb7, 0x55, 0x3e, 0x84, 0x3a,
  0xff, 0x11, 0xc5, 0x38, 0x0b, 0xc5, 0x47, 0x3a, 0x6a, 0xd1, 0x0a, 0x39,
  0x22, 0xfe, 0x18, 0x3a, 0x0d, 0x37, 0xe4, 0xb9, 0x1b, 0x67, 0x24, 0xb8,
  0xd4, 0x1b, 0xe1, 0x39, 0x55, 0x4b, 0x76, 0x3a, 0x23, 0x2f, 0x58, 0x3a,
  0x97, 0xff, 0x4b, 0x3a, 0x53, 0xe6, 0x22, 0xb9, 0x2d, 0x53, 0x8b, 0x3a,
  0xf5, 0x16, 0xd7, 0x39, 0xe2, 0x3b, 0xa8, 0x38, 0xb3, 0xf9, 0x54, 0x3a,
  0x36, 0x42, 0x85, 0x39, 0x14, 0x3e, 0xc5, 0xb8, 0x41, 0x40, 0x8f, 0x37,
  0x79, 0x3f, 0x5b, 0x3a, 0x2d, 0x1e, 0xf0, 0xb8, 0x9e, 0x20, 0x79, 0x3a,
  0xde, 0xf4, 0x89, 0xb9, 0xc2, 0x2a, 0x41, 0xb9, 0xc1, 0xe3, 0xad, 0xb9,
  0x29, 0x1a, 0x28, 0x39, 0x70, 0x9e, 0x11, 0xba, 0x31, 0x17, 0xb9, 0xb9,
  0xca, 0x17, 0x6d, 0x38, 0x75, 0x3d, 0x0d, 0xba, 0xd6, 0x38, 0xae, 0x38,
  0xe0, 0xe6, 0x33, 0x3a, 0xaf, 0x6b, 0xfb, 0xb9, 0xfe, 0x09, 0x29, 0xba,
  0x6f, 0xcd, 0xab, 0xb8, 0x20, 0x76, 0x95, 0x36, 0xf7, 0x89, 0x04, 0xba,
  0xd8, 0x29, 0xb9, 0x39, 0xd7, 0xeb, 0x65, 0xb7, 0xfc, 0x9f, 0xe5, 0xb9,
  0x91, 0xca, 0xa2, 0x39, 0xa1, 0xcc, 0xd4, 0x39, 0xe6, 0xab, 0xa1, 0xb8,
  0x45, 0x6e, 0x13, 0xba, 0xcd, 0x70, 0x84, 0x39, 0x00, 0x1b, 0x04, 0x3a,
  0x5a, 0xa8, 0xc7, 0x39, 0x21, 0xff, 0x29, 0x39, 0xbc, 0xb0, 0x00, 0xb9,
  0xc1, 0x09, 0xb0, 0x38, 0xeb, 0x5c, 0xa0, 0xb7, 0x59, 0xb2, 0x01, 0xb8,
  0x52, 0xb6, 0x46, 0xb8, 0x0b, 0xfc, 0xd0, 0xb7, 0xbb, 0x7d, 0xc1, 0xb7,
  0x47, 0x4d, 0xf5, 0xb7, 0xb5, 0x17, 0xde, 0xb7, 0x67, 0x42, 0xdf, 0xb7,
  0x5d, 0xa6, 0x24, 0xb8, 0x6f, 0x0e, 0xc3, 0x37, 0x5b, 0xbd, 0xdf, 0xb7,
  0x77, 0x88, 0x2b, 0xb8, 0x17, 0x27, 0x9a, 0xb8, 0xdf, 0x40, 0xa5, 0xaf,
  0x9c, 0xb5, 0x39, 0xb8, 0xa0, 0xd6, 0xbb, 0xb7, 0xbe, 0x11, 0xe2, 0xb7,
  0x5a, 0x06, 0x28, 0xb8, 0x61, 0x52, 0xf9, 0xb7, 0x78, 0x8e, 0x20, 0xb8,
  0xcb, 0xe0, 0x1f, 0xb8, 0xd3, 0x68, 0xaa, 0x38, 0xd1, 0xd5, 0x12, 0xb8,
  0x97, 0x99, 0x2c, 0xb8, 0x83, 0x1b, 0x01, 0x39, 0x6d, 0x81, 0x26, 0xb8,
  0x55, 0x8c, 0x69, 0xb9, 0x6b, 0x95, 0x3b, 0x39, 0xe9, 0xd5, 0x56, 0x39,
  0x56, 0xc0, 0x12, 0xba, 0x8e, 0xa5, 0x1e, 0x3a, 0xe8, 0x4b, 0xe2, 0x39,
  0xe5, 0xc3, 0x21, 0x37, 0xa8, 0xba, 0x84, 0xb9, 0xb8, 0xe3, 0x80, 0x39,
  0x51, 0x76, 0xe8, 0x39, 0x3d, 0x72, 0x03, 0xba, 0xd8, 0x4d, 0x4f, 0xb9,
  0x0a, 0x9b, 0xaf, 0xb9, 0x87, 0xa0, 0xc0, 0x39, 0x17, 0xe4, 0x06, 0xb9,
  0x3e, 0x8c, 0x68, 0xb9, 0xf8, 0xe8, 0xd8, 0x39, 0x38, 0xa1, 0xc9, 0xb9,
  0xf5, 0xe6, 0xb6, 0x39, 0x01, 0x9a, 0x6a, 0xb9, 0xb0, 0xb7, 0xc4, 0xb9,
  0xf1, 0x92, 0x4c, 0xb8, 0xd0, 0x0c, 0x1e, 0x3a, 0x9f, 0x05, 0xe1, 0xb9,
  0xfa, 0xf8, 0xd9, 0x39, 0xb7, 0x18, 0xb4, 0x38, 0xe5, 0x87, 0x1a, 0xba,
  0x2f, 0x1a, 0x2d, 0xb9, 0x01, 0x6e, 0x4d, 0xba, 0x9c, 0xf8, 0x53, 0xba,
  0x5c, 0xbf, 0x27, 0xba, 0x76, 0x4d, 0x20, 0xba, 0xe9, 0xa1, 0x0f, 0xba,
  0x1b, 0x26, 0xd1, 0xb9, 0x59, 0xf8, 0x88, 0x39, 0x6e, 0x73, 0xbc, 0xb9,
  0x03, 0x76, 0x5e, 0x3a, 0x16, 0x90, 0x14, 0xba, 0x79, 0xea, 0x57, 0x38,
  0xe7, 0x30, 0x88, 0xb9, 0xee, 0x95, 0x30, 0x39, 0x27, 0xab, 0x0b, 0xb9,
  0xe5, 0xe1, 0xc1, 0xb9, 0xe6, 0x3a, 0x09, 0xba, 0xe6, 0x09, 0x35, 0x3a,
  0x53, 0x13, 0x1c, 0x3a, 0x41, 0xb2, 0x33, 0xba, 0x62, 0x7d, 0xb0, 0x39,
  0x7d, 0x35, 0x80, 0xb8, 0xf0, 0xc6, 0xe7, 0xb7, 0xa5, 0x6d, 0xa4, 0xb9,
  0xaa, 0x23, 0x47, 0x3a, 0xc3, 0x34, 0x81, 0xb9, 0x12, 0x6e, 0x19, 0x3a,
  0x6c, 0x2d, 0xac, 0xb9, 0x4a, 0x77, 0x93, 0xb9, 0x5b, 0x86, 0xf2, 0xb9,
  0xba, 0xd9, 0x52, 0x3a, 0x51, 0xe3, 0x53, 0x39, 0xd4, 0x04, 0x8f, 0x38,
  0x9a, 0xd5, 0x23, 0xb9, 0x02, 0x04, 0xe6, 0xb9, 0x08, 0xe5, 0xf6, 0x38,
  0xe8, 0xaa, 0x1a, 0x3a, 0xd5, 0x19, 0x4b, 0x38, 0xae, 0x65, 0x76, 0xb9,
  0xd7, 0xa9, 0xd6, 0x39, 0x49, 0xdf, 0xc7, 0xb9, 0x1b, 0x31, 0x03, 0x39,
  0x3d, 0x7b, 0x99, 0xb8, 0xe8, 0x68, 0xba, 0xb9, 0xd5, 0xc8, 0x0d, 0x3a,
  0xbf, 0x19, 0x47, 0x3a, 0xdd, 0x1a, 0x05, 0x3a, 0x29, 0x2a, 0x86, 0x39,
  0x2e, 0x7c, 0x54, 0xb8, 0x9c, 0xe5, 0x07, 0xb9, 0x0f, 0x5f, 0xc5, 0xb9,
  0x9a, 0xdf, 0xe6, 0x39, 0xc9, 0x96, 0x17, 0x38, 0xb5, 0x76, 0x07, 0x3a,
  0x7e, 0x85, 0xfe, 0x33, 0x0a, 0x3c, 0x83, 0x34, 0x31, 0x64, 0x6c, 0x34,
  0x64, 0xc6, 0x0b, 0x35, 0x24, 0x33, 0xba, 0xb2, 0x63, 0xb4, 0xaf, 0x33,
  0x69, 0xc1, 0x65, 0x34, 0x65, 0x0a, 0x9f, 0x32, 0x6e, 0x7b, 0xef, 0x34,
  0xb4, 0xe2, 0xbe, 0x33, 0x88, 0xf0, 0xaf, 0x33, 0x40, 0x1a, 0x39, 0x35,
  0x54, 0xd7, 0x9d, 0x33, 0xb7, 0x46, 0x17, 0xb5, 0xa3, 0x19, 0xe4, 0xb2,
  0x65, 0x31, 0x66, 0x34, 0x54, 0x55, 0x73, 0x35, 0x29, 0x56, 0x82, 0xb4,
  0x83, 0xdf, 0x07, 0x35, 0x53, 0xc8, 0x26, 0xb4, 0x31, 0xb1, 0x01, 0xb5,
  0xb2, 0xc5, 0x56, 0xb4, 0x88, 0x44, 0x0f, 0x33, 0x19, 0x92, 0x9e, 0xb5,
  0x25, 0xa7, 0xf9, 0x33, 0x35, 0xd3, 0x3e, 0x35, 0xf3, 0x74, 0xec, 0xb2,
  0x70, 0x9e, 0x98, 0x3a, 0xf8, 0xd3, 0x87, 0x3a, 0xc5, 0x97, 0x78, 0x39,
  0x1c, 0xc5, 0x69, 0x3a, 0x59, 0x74, 0x23, 0x3a, 0xcd, 0x4c, 0xa2, 0x3a,
  0xee, 0x5f, 0x7f, 0x3a, 0x47, 0x4c, 0xba, 0x3a, 0x44, 0xc9, 0x1d, 0x3a,
  0xd4, 0xbc, 0x95, 0x3a, 0xec, 0x0d, 0x8c, 0x3a, 0x25, 0x43, 0xcd, 0x39,
  0x14, 0x7f, 0x56, 0xb9, 0x91, 0x18, 0x48, 0x3a, 0xcb, 0x17, 0x38, 0x3a,
  0x29, 0x47, 0xc9, 0x38, 0xf7, 0xde, 0xa4, 0x38, 0xb6, 0x81, 0x7b, 0x3a,
  0x8b, 0x28, 0x76, 0x39, 0x22, 0x10, 0x08, 0x3a, 0x28, 0x0f, 0x03, 0x39,
  0x59, 0x15, 0x24, 0x39, 0xbf, 0xd0, 0xa6, 0x3a, 0xd0, 0xcd, 0xb4, 0x39,
  0xc7, 0x93, 0xd7, 0x39, 0xc7, 0x2e, 0x98, 0x3a, 0x93, 0x65, 0x77, 0xb8,
  0x29, 0x7e, 0x83, 0x39, 0x57, 0x92, 0x7f, 0x3a, 0x58, 0x85, 0xc1, 0x3a,
  0xa8, 0xf9, 0x27, 0x3a, 0x09, 0x67, 0x4c, 0x3a, 0x3e, 0xe6, 0x4c, 0x3a,
  0xd5, 0xbe, 0xe7, 0x38, 0xfd, 0x98, 0xee, 0x39, 0x00, 0x88, 0x9a, 0x3a,
  0x31, 0x03, 0x21, 0x3a, 0x0f, 0x9e, 0x48, 0x3a, 0x34, 0xc5, 0x52, 0x3a,
  0xcd, 0xd2, 0xdb, 0x39, 0xad, 0x75, 0xb6, 0x39, 0x00, 0x8c, 0xb9, 0x39,
  0xfd, 0xe0, 0x80, 0x3a, 0xd7, 0x78, 0xaf, 0x3a, 0x74, 0x9d, 0x4e, 0x3a,
  0xbd, 0xea, 0x33, 0x3a, 0xc0, 0x11, 0x9d, 0x3a, 0x04, 0x86, 0x79, 0x3a,
  0x00, 0xfb, 0x24, 0x3a, 0xb8, 0x5a, 0xa9, 0x3a, 0x55, 0xac, 0xaa, 0x3a,
  0x2c, 0x91, 0xb5, 0x39, 0xd5, 0x72, 0xfe, 0x39, 0x39, 0xce, 0x10, 0x3a,
  0x17, 0x85, 0xc5, 0xb8, 0x41, 0x52, 0x0c, 0xba, 0xcf, 0x87, 0x49, 0x3a,
  0x3e, 0x97, 0x2d, 0xb9, 0x61, 0x03, 0x03, 0x3a, 0xb0, 0x00, 0xf5, 0xb8,
  0x4a, 0x4d, 0xc3, 0xb9, 0x47, 0xf8, 0x18, 0x3a, 0xc3, 0x9a, 0xc2, 0xb8,
  0xf1, 0x60, 0x40, 0xb8, 0x37, 0xc0, 0x0d, 0x38, 0xc7, 0x43, 0xde, 0x39,
  0x76, 0xac, 0xd6, 0xb8, 0x23, 0x20, 0x84, 0xb9, 0xe5, 0xb0, 0x08, 0x3a,
  0x49, 0x07, 0x87, 0x38, 0x41, 0x69, 0x88, 0x39, 0xe9, 0x50, 0x9b, 0x39,
  0xeb, 0x40, 0xc8, 0x39, 0x79, 0x3c, 0x3b, 0xba, 0xe2, 0x8f, 0x01, 0x3a,
  0xd8, 0xa3, 0x1e, 0xba, 0x22, 0x5a, 0x2f, 0x39, 0x29, 0x97, 0x15, 0x3a,
  0x4d, 0x7a, 0x4d, 0x39, 0xcb, 0x3e, 0xd8, 0xb9, 0x52, 0x6c, 0xe4, 0xb9,
  0xae, 0xc0, 0xc1, 0x39, 0x9e, 0x65, 0xea, 0xb9, 0xb3, 0x5b, 0x94, 0x38,
  0x13, 0x7d, 0xc0, 0xb9, 0xfd, 0xd0, 0xcd, 0xb9, 0xe4, 0x7d, 0x15, 0xb9,
  0x1d, 0xfa, 0x40, 0x3a, 0x58, 0x29, 0xe1, 0x39, 0x9d, 0xb9, 0xa7, 0x39,
  0x51, 0xc3, 0x39, 0x3a, 0x4f, 0x82, 0xe0, 0xb7, 0x7c, 0xe0, 0x11, 0x3a,
  0x36, 0x28, 0x16, 0x39, 0x19, 0x2e, 0x9a, 0x39, 0x73, 0xa7, 0x1c, 0xba,
  0x97, 0xeb, 0x32, 0x39, 0xb7, 0x48, 0xfc, 0x39, 0x1e, 0x8d, 0x85, 0x39,
  0x4e, 0xdd, 0xa9, 0x38, 0x0c, 0x39, 0xe9, 0xb9, 0x2e, 0x16, 0x07, 0x38,
  0xc3, 0xfd, 0xc4, 0x39, 0x9c, 0x70, 0x90, 0xb8, 0x52, 0xa0, 0xf3, 0xb9,
  0x27, 0xee, 0xf2, 0x39, 0xe2, 0x37, 0xfa, 0x39, 0x91, 0xbb, 0xf5, 0x39,
  0xf8, 0x75, 0x7b, 0x34, 0x1d, 0xd4, 0x06, 0xb5, 0xe0, 0xda, 0x94, 0xb5,
  0xfa, 0x45, 0x75, 0xb4, 0x17, 0xfa, 0x4d, 0x33, 0x0b, 0x49, 0x15, 0x34,
  0xf6, 0x60, 0x85, 0x34, 0x4e, 0xae, 0x33, 0x35, 0x35, 0x68, 0xed, 0x34,
  0xff, 0xf8, 0xe4, 0xb3, 0xac, 0x06, 0x2e, 0xb5, 0x16, 0x03, 0xb5, 0x34,
  0xec, 0xf2, 0x58, 0x34, 0xcd, 0xea, 0x76, 0xb4, 0xff, 0xc8, 0x89, 0x33,
  0x20, 0x54, 0x8a, 0x33, 0x70, 0x2b, 0x15, 0xb5, 0x1a, 0xe8, 0x56, 0xb4,
  0xc2, 0x24, 0x09, 0xb4, 0xa1, 0xd5, 0xb3, 0xb3, 0x35, 0x1c, 0xd7, 0x34,
  0x28, 0xd9, 0x41, 0x35, 0xbb, 0xaa, 0xd9, 0x34, 0xe6, 0x1a, 0x3d, 0x34,
  0x88, 0x62, 0x9c, 0xb4, 0x8b, 0x34, 0x9e, 0xb3, 0x71, 0xfc, 0x5b, 0xb3,
  0x56, 0x78, 0xc1, 0x34, 0x87, 0x2f, 0x1b, 0x34, 0x8f, 0x60, 0x39, 0xb4,
  0x10, 0x20, 0xff, 0x33, 0x49, 0xc9, 0x24, 0x35, 0x8b, 0x3d, 0x79, 0xb4,
  0x76, 0x69, 0x12, 0x35, 0xc7, 0xb3, 0x80, 0xb5, 0x4a, 0x85, 0xfa, 0x34,
  0xb8, 0x23, 0x4f, 0xb3, 0xeb, 0x57, 0x97, 0x35, 0xb7, 0xee, 0xbb, 0xb4,
  0xcd, 0xef, 0x64, 0xb5, 0x82, 0xec, 0x92, 0x34, 0xe2, 0xf4, 0x83, 0x35,
  0x81, 0xcd, 0x5b, 0x34, 0xfa, 0xa1, 0x9c, 0x34, 0x31, 0x5a, 0x76, 0xb4,
  0xb1, 0x5c, 0x57, 0x34, 0x0b, 0x8e, 0x8c, 0xb5, 0x61, 0x0c, 0x98, 0xb4,
  0x8c, 0x6a, 0x04, 0x35, 0x6e, 0x1c, 0xbe, 0xb4, 0x15, 0x66, 0x0a, 0xb3,
  0x1f, 0xd9, 0x2a, 0xb4, 0x43, 0x91, 0x83, 0xb4, 0x85, 0x4d, 0xa8, 0x34,
  0x20, 0xcc, 0x2d, 0xb9, 0x96, 0x22, 0x29, 0x39, 0x5c, 0xfe, 0x2a, 0xb8,
  0x90, 0x53, 0xac, 0x38, 0x08, 0xa0, 0xa2, 0x39, 0x20, 0xd0, 0xa9, 0xb7,
  0xe7, 0x6b, 0x31, 0x38, 0x1c, 0x6a, 0x92, 0xb9, 0xcd, 0xb8, 0x99, 0xb8,
  0x28, 0xf4, 0x6c, 0xb9, 0x09, 0x74, 0x8a, 0x38, 0x40, 0xae, 0x9b, 0xb9,
  0x16, 0x54, 0x96, 0x39, 0x0b, 0x53, 0xfb, 0xb7, 0x48, 0xf1, 0x82, 0x38,
  0x8e, 0xdb, 0x54, 0x38, 0x88, 0x45, 0x31, 0x38, 0xa7, 0x92, 0x6c, 0x38,
  0x76, 0x74, 0xad, 0x39, 0xb8, 0x38, 0xe0, 0x38, 0xfa, 0xd5, 0x45, 0x37,
  0xdd, 0xe3, 0x99, 0x38, 0x24, 0xea, 0x78, 0x38, 0xbe, 0xf8, 0xbe, 0xb9,
  0x94, 0x54, 0x1e, 0xb9, 0xd3, 0xbf, 0x3b, 0xb9, 0x6c, 0x6a, 0xa2, 0xb9,
  0x79, 0x3d, 0xcc, 0x35, 0xff, 0x1e, 0x65, 0x34, 0xfe, 0xb7, 0x9a, 0xb4,
  0xf4, 0x55, 0xbd, 0x34, 0x42, 0x36, 0x8f, 0xb4, 0x6f, 0x2e, 0x7b, 0x35,
  0xb2, 0xe3, 0xb2, 0xb4, 0x0e, 0x7b, 0x6a, 0x34, 0xc6, 0x86, 0x22, 0x34,
  0xa6, 0xd2, 0xaa, 0xb4, 0xce, 0xb5, 0xeb, 0x34, 0x1b, 0x64, 0xd7, 0x34,
  0x86, 0x10, 0x91, 0x35, 0xf2, 0x59, 0x40, 0xb4, 0xc1, 0xd7, 0xc4, 0xb4,
  0x1c, 0x85, 0x96, 0x33, 0x39, 0xc1, 0x68, 0xb5, 0xda, 0x80, 0x6e, 0xb4,
  0xc5, 0xac, 0x35, 0xb5, 0xd4, 0xcd, 0xd8, 0xb3, 0x69, 0x3d, 0x36, 0xb4,
  0xae, 0x4e, 0x14, 0x35, 0xb3, 0x5e, 0xda, 0x33, 0xc6, 0x4a, 0xf6, 0x34,
  0x6d, 0x89, 0x1d, 0xb4, 0x7c, 0xc3, 0xa2, 0x34, 0x0e, 0x00, 0x9b, 0x33,
  0xaf, 0xa1, 0xc2, 0xb9, 0xb3, 0xe3, 0x08, 0xba, 0xb5, 0x72, 0x46, 0x39,
  0xa5, 0xe6, 0xa6, 0xb8, 0xd0, 0xfc, 0xb8, 0x39, 0x74, 0xe2, 0xab, 0x39,
  0xad, 0x4a, 0xa6, 0xb8, 0x92, 0x47, 0xdd, 0x39, 0x63, 0xab, 0x45, 0x3a,
  0x3f, 0x95, 0x13, 0xba, 0x3a, 0x2e, 0x27, 0xba, 0x0e, 0x39, 0xc5, 0xb9,
  0xd4, 0x16, 0x0e, 0xba, 0xa1, 0x9d, 0xc7, 0xb9, 0x66, 0x87, 0x3b, 0x3a,
  0x6d, 0xf7, 0x34, 0x3a, 0xe3, 0x5d, 0xfd, 0x39, 0x4f, 0x48, 0xf4, 0xb9,
  0xd0, 0xe1, 0xbb, 0xb9, 0x0e, 0x9d, 0x96, 0xb9, 0xd0, 0x56, 0x9a, 0x39,
  0x1c, 0xa9, 0x13, 0x3a, 0xb3, 0x41, 0xb7, 0xb8, 0x15, 0x01, 0x55, 0x39,
  0x75, 0x59, 0x94, 0x39, 0x4f, 0xcd, 0xa2, 0x39, 0xfa, 0x60, 0x2f, 0x3a,
  0x4a, 0xe1, 0xff, 0xff, 0xc0, 0x00, 0x00, 0x00, 0x0a, 0x00, 0x00, 0x00,
  0x08, 0x00, 0x00, 0x00, 0xc8, 0x00, 0x00, 0x00, 0xa9, 0x00, 0x00, 0x00,
  0x73, 0x65, 0x71, 0x75, 0x65, 0x6e, 0x74, 0x69, 0x61, 0x6c, 0x2f, 0x63,
  0x6f, 0x6e, 0x76, 0x32, 0x64, 0x5f, 0x31, 0x2f, 0x52, 0x65, 0x6c, 0x75,
  0x3b, 0x73, 0x65, 0x71, 0x75, 0x65, 0x6e, 0x74, 0x69, 0x61, 0x6c, 0x2f,
  0x63, 0x6f, 0x6e, 0x76, 0x32, 0x64, 0x5f, 0x31, 0x2f, 0x42, 0x69, 0x61,
  0x73, 0x41, 0x64, 0x64, 0x3b, 0x73, 0x65, 0x71, 0x75, 0x65, 0x6e, 0x74,
  0x69, 0x61, 0x6c, 0x2f, 0x64, 0x65, 0x70, 0x74, 0x68, 0x77, 0x69, 0x73,
  0x65, 0x5f, 0x63, 0x6f, 0x6e, 0x76, 0x32, 0x64, 0x2f, 0x64, 0x65, 0x70,
  0x74, 0x68, 0x77, 0x69, 0x73, 0x65, 0x3b, 0x73, 0x65, 0x71, 0x75, 0x65,
  0x6e, 0x74, 0x69, 0x61, 0x6c, 0x2f, 0x63, 0x6f, 0x6e, 0x76, 0x32, 0x64,
  0x5f, 0x31, 0x2f, 0x43, 0x6f, 0x6e, 0x76, 0x32, 0x44, 0x3b, 0x73, 0x65,
  0x71, 0x75, 0x65, 0x6e, 0x74, 0x69, 0x61, 0x6c, 0x2f, 0x63, 0x6f, 0x6e,
  0x76, 0x32, 0x64, 0x5f, 0x31, 0x2f, 0x42, 0x69, 0x61, 0x73, 0x41, 0x64,
  0x64, 0x2f, 0x52, 0x65, 0x61, 0x64, 0x56, 0x61, 0x72, 0x69, 0x61, 0x62,
  0x6c, 0x65, 0x4f, 0x70, 0x2f, 0x72, 0x65, 0x73, 0x6f, 0x75, 0x72, 0x63,
  0x65, 0x00, 0x00, 0x00, 0x04, 0x00, 0x00, 0x00, 0x10, 0x00, 0x00, 0x00,
  0x03, 0x00, 0x00, 0x00, 0x03, 0x00, 0x00, 0x00, 0x03, 0x00, 0x00, 0x00,
  0xd0, 0xe0, 0xff, 0xff, 0xb2, 0xe1, 0xff, 0xff, 0x04, 0x00, 0x00, 0x00,
  0x00, 0x09, 0x00, 0x00, 0x0c, 0x55, 0xd9, 0x3d, 0x5f, 0xeb, 0x2c, 0xbe,
  0xda, 0x16, 0xc3, 0xbb, 0xc6, 0x6c, 0x42, 0xbe, 0xb5, 0x61, 0x5d, 0x3e,
  0xa2, 0x08, 0xf0, 0xbd, 0xfb, 0x02, 0xe0, 0x38, 0x28, 0xbd, 0x17, 0xbe,
  0x81, 0xf9, 0x96, 0xbe, 0x2f, 0xa7, 0x3c, 0xbe, 0x75, 0x15, 0x0a, 0x3e,
  0x48, 0x79, 0x82, 0x38, 0x3b, 0xe9, 0x7f, 0x39, 0x2f, 0x90, 0x08, 0xbe,
  0x93, 0xed, 0x96, 0xb8, 0x28, 0x2a, 0xc0, 0x3d, 0x18, 0x4a, 0x89, 0xbc,
  0x47, 0x5e, 0x58, 0xbe, 0x0d, 0x5c, 0x97, 0xbb, 0xeb, 0x5c, 0xcb, 0xbd,
  0x33, 0xb7, 0x84, 0x3e, 0xc8, 0xc0, 0xd7, 0x3b, 0xf8, 0xb7, 0xf6, 0x38,
  0x28, 0x97, 0xf1, 0x3d, 0xd2, 0xb8, 0x97, 0xbe, 0x41, 0x10, 0x19, 0xbe,
  0x99, 0x5b, 0xd9, 0xbd, 0x33, 0x77, 0x71, 0xb8, 0xf3, 0x36, 0xbf, 0xb6,
  0xce, 0x2b, 0xb8, 0x3d, 0xf3, 0xa5, 0x2d, 0xb8, 0x39, 0xc3, 0x2e, 0xbd,
  0x17, 0x24, 0x73, 0xbc, 0x45, 0x55, 0x0c, 0xbe, 0xfd, 0xb8, 0xc1, 0xbb,
  0xdc, 0xe5, 0x5c, 0xbd, 0x6a, 0xaa, 0x38, 0x3e, 0x2f, 0xf6, 0x60, 0x3e,
  0x3d, 0x73, 0xd2, 0xb8, 0xf7, 0x59, 0xc8, 0x3d, 0x07, 0x39, 0x54, 0xbe,
  0xf2, 0x5a, 0x2a, 0xbe, 0xa8, 0x27, 0x13, 0xbd, 0x3d, 0xcd, 0x40, 0x38,
  0x46, 0x51, 0xc6, 0xb8, 0xa1, 0x80, 0xe8, 0x3b, 0xc0, 0xca, 0x71, 0x38,
  0x71, 0x54, 0x82, 0x3c, 0x7d, 0xd7, 0xed, 0x3d, 0xc0, 0x62, 0x7d, 0xbe,
  0x47, 0x85, 0xd0, 0xbb, 0xe5, 0xf5, 0x5c, 0xbe, 0x4d, 0x9a, 0x84, 0x3e,
  0xb1, 0x0b, 0xf6, 0x3d, 0x06, 0x28, 0x12, 0xb7, 0x6b, 0x63, 0x08, 0xbe,
  0x6e, 0x83, 0x6e, 0xbe, 0xe5, 0x0c, 0xb4, 0xbd, 0x92, 0x70, 0x42, 0xbe,
  0x47, 0xb7, 0xb8, 0xb9, 0xe2, 0xa7, 0xe9, 0xb8, 0xfa, 0x7f, 0x40, 0xbe,
  0x4a, 0x76, 0x78, 0xb8, 0x98, 0x88, 0x26, 0x3d, 0x9f, 0x52, 0x5f, 0xbd,
  0x2e, 0x5c, 0x95, 0xbe, 0x03, 0x76, 0x03, 0x3d, 0x93, 0x3f, 0x08, 0x3c,
  0x58, 0x52, 0x8c, 0x3e, 0x50, 0x2c, 0x52, 0x3e, 0x0f, 0x32, 0x34, 0xb9,
  0x3e, 0x54, 0xd5, 0x3d, 0xd3, 0x21, 0x25, 0xbe, 0x01, 0x14, 0x8c, 0x3d,
  0x4d, 0x23, 0x46, 0x3d, 0x18, 0xa2, 0x20, 0x39, 0x62, 0x9c, 0xf8, 0x38,
  0x12, 0x0b, 0x2d, 0xbe, 0x62, 0xe7, 0x9c, 0xb7, 0x50, 0xc7, 0x9e, 0xbd,
  0x09, 0xd4, 0x18, 0x3e, 0x7d, 0xd1, 0x0b, 0xbd, 0x15, 0xb4, 0x4f, 0xbc,
  0x95, 0xb0, 0x8e, 0xbd, 0x57, 0x39, 0xec, 0x3d, 0x6e, 0xca, 0xcf, 0x3a,
  0x04, 0x20, 0xee, 0x38, 0x37, 0xa0, 0x7a, 0x3c, 0xcf, 0xcf, 0x50, 0xbe,
  0x91, 0xdd, 0x57, 0xbb, 0xcf, 0x82, 0xbf, 0x3d, 0x1e, 0xff, 0xdd, 0x36,
  0x1f, 0x09, 0x72, 0xb9, 0x1c, 0xf5, 0x81, 0xbd, 0x6d, 0xf7, 0x95, 0xb8,
  0x29, 0x3e, 0x1b, 0xbe, 0x04, 0x00, 0x4a, 0x3e, 0x56, 0xf3, 0x4b, 0x3d,
  0x22, 0xcf, 0xc2, 0xbb, 0x57, 0xfc, 0x2e, 0xbe, 0xdf, 0x8f, 0x64, 0xbd,
  0x7f, 0xc2, 0x31, 0xbd, 0xe0, 0xb4, 0x13, 0xb9, 0xcf, 0xb5, 0xb2, 0x3d,
  0x6c, 0x9b, 0x23, 0xbe, 0x9c, 0xa6, 0x8e, 0x3d, 0xda, 0x82, 0xe5, 0xbd,
  0xb3, 0xfd, 0xb9, 0xb8, 0x97, 0xdc, 0x01, 0xb9, 0x39, 0x8b, 0x43, 0xbe,
  0xb9, 0xc7, 0x95, 0xb8, 0xb4, 0x36, 0xd0, 0x3d, 0x57, 0x6b, 0xe9, 0xba,
  0x51, 0xf0, 0xa5, 0xbd, 0x4f, 0xa9, 0x37, 0xbc, 0xdf, 0x94, 0xd1, 0xbb,
  0xb3, 0x90, 0x8a, 0xba, 0xd7, 0x12, 0xbe, 0x3d, 0xf8, 0xbf, 0xcd, 0xb8,
  0x4d, 0x4f, 0xb1, 0xbd, 0xc1, 0x0a, 0x0d, 0xbe, 0x59, 0x1a, 0x1a, 0x3d,
  0xcd, 0xc7, 0x09, 0xbe, 0xca, 0x61, 0x08, 0xb6, 0x7f, 0x3a, 0x29, 0x39,
  0xf7, 0x48, 0x8c, 0x3c, 0xed, 0x37, 0x72, 0x38, 0x48, 0xd5, 0x5a, 0x3c,
  0x0b, 0xb5, 0x41, 0xbd, 0xb1, 0xc5, 0x55, 0xbd, 0x2d, 0xf3, 0x3b, 0xbc,
  0x66, 0x84, 0x05, 0x3d, 0xc5, 0x1b, 0xe1, 0xbc, 0x82, 0xa8, 0x0c, 0xbe,
  0xc3, 0x8a, 0x6c, 0xb9, 0x52, 0x24, 0xb7, 0xbd, 0x4a, 0xc5, 0xfb, 0xbd,
  0x62, 0xcb, 0xd6, 0x3d, 0xe5, 0xbe, 0x3d, 0xbe, 0x7d, 0x8f, 0x83, 0x37,
  0xc9, 0x31, 0x74, 0x38, 0x71, 0x6f, 0xda, 0xbd, 0xdc, 0x1d, 0x37, 0xb9,
  0x27, 0xea, 0xe9, 0x3c, 0x29, 0xaf, 0xe8, 0xbd, 0xc7, 0xfd, 0x1a, 0xbd,
  0x16, 0xab, 0x04, 0x3c, 0x86, 0x44, 0xd3, 0xbd, 0x87, 0x96, 0xc5, 0xbd,
  0x6d, 0xbc, 0xf2, 0xbd, 0x79, 0x87, 0xbd, 0x38, 0x6a, 0xbd, 0xab, 0xbc,
  0x23, 0x1e, 0x65, 0x3e, 0xd8, 0xcc, 0x4d, 0xbd, 0xd5, 0xc8, 0x4f, 0x3e,
  0xa8, 0xb2, 0x21, 0xb9, 0xc2, 0x41, 0x0c, 0x39, 0xcb, 0x7b, 0x44, 0x3e,
  0xd5, 0x41, 0x60, 0xb9, 0xc4, 0xf3, 0xca, 0xbc, 0x9d, 0x41, 0x29, 0xbe,
  0x13, 0xb4, 0xa7, 0x3c, 0xec, 0x63, 0x4e, 0x3c, 0x4d, 0x6b, 0x28, 0x3e,
  0x58, 0xd9, 0x1c, 0xbd, 0xae, 0xd3, 0x3d, 0x3c, 0xa2, 0x35, 0xef, 0xb8,
  0x8b, 0xe5, 0xc5, 0xbd, 0xef, 0x0c, 0x56, 0x3e, 0x6e, 0xf5, 0x25, 0xbc,
  0x7a, 0xda, 0x1d, 0xbd, 0x01, 0x21, 0x4d, 0xb9, 0xba, 0xa5, 0xa0, 0x38,
  0x6b, 0x7c, 0xbf, 0xbd, 0x05, 0xfc, 0xd5, 0x37, 0x59, 0x23, 0x25, 0xbe,
  0x37, 0xd9, 0x8e, 0x3d, 0x45, 0xc7, 0xae, 0xbc, 0x07, 0xfa, 0x31, 0x3c,
  0x3c, 0x9b, 0x67, 0x3d, 0x55, 0x13, 0x2c, 0x3e, 0x1e, 0x38, 0xe0, 0x3d,
  0x0e, 0x9d, 0xf2, 0xb8, 0xef, 0x43, 0x5f, 0xbe, 0x94, 0xe3, 0x2c, 0x3d,
  0xc4, 0x84, 0x2d, 0x3d, 0xcd, 0xa7, 0x97, 0x3d, 0x3e, 0xd1, 0x66, 0x38,
  0x51, 0x99, 0x31, 0xb9, 0x22, 0x6e, 0xf2, 0xbc, 0x6e, 0xde, 0x3d, 0x37,
  0x92, 0xb9, 0x41, 0xbe, 0x04, 0xe2, 0x84, 0xbd, 0xed, 0xa8, 0x10, 0x3e,
  0xef, 0xa8, 0x45, 0x3c, 0x22, 0xed, 0x30, 0x3e, 0x48, 0x6a, 0x6c, 0xbd,
  0x58, 0x5e, 0x16, 0xbe, 0x76, 0x7f, 0x47, 0xb9, 0xb9, 0x85, 0x3d, 0xbe,
  0x23, 0xad, 0x47, 0x3e, 0x31, 0xa9, 0xaf, 0x3d, 0x43, 0x49, 0x05, 0x3e,
  0xfa, 0xd8, 0x3f, 0xb9, 0x8a, 0xcb, 0xa5, 0xb8, 0x0b, 0x62, 0xe5, 0xba,
  0xa3, 0xe9, 0x89, 0x38, 0xd0, 0x1d, 0x42, 0xbd, 0x6f, 0xb7, 0xbe, 0xbc,
  0xf2, 0x83, 0x3a, 0xbd, 0xbb, 0xf3, 0x63, 0x3c, 0x78, 0xd7, 0x3b, 0x3c,
  0xf1, 0x5b, 0xab, 0xbd, 0x07, 0xb4, 0x00, 0x3e, 0x59, 0xb9, 0x3e, 0xb9,
  0x26, 0xe4, 0xb8, 0x3d, 0xf7, 0xcd, 0x72, 0x3e, 0xcf, 0xaa, 0x4e, 0x3e,
  0xa5, 0x7c, 0xbb, 0x3d, 0xfe, 0x55, 0x62, 0x38, 0xc3, 0x8a, 0x2a, 0x39,
  0xe0, 0x67, 0xf1, 0x3d, 0x1e, 0xfa, 0xdb, 0x38, 0xda, 0x19, 0xb0, 0xbc,
  0xe8, 0x9e, 0x6e, 0xbb, 0xff, 0x20, 0x69, 0x3d, 0x7f, 0x84, 0x1d, 0x3c,
  0x96, 0xba, 0x95, 0x3c, 0x0f, 0xe6, 0x0a, 0xbe, 0x65, 0x94, 0x4d, 0xbd,
  0xb0, 0x7d, 0x17, 0xb9, 0x22, 0x4c, 0x46, 0x3b, 0x1e, 0x67, 0x50, 0x3e,
  0xe7, 0x40, 0x0a, 0xbc, 0x8c, 0x96, 0x86, 0x3d, 0xa7, 0x0e, 0x6e, 0xb8,
  0xce, 0x42, 0x0f, 0x39, 0xda, 0x0c, 0x83, 0xbd, 0x28, 0xea, 0x8f, 0x39,
  0x3f, 0xb5, 0x41, 0xbe, 0xaf, 0x92, 0x99, 0x3d, 0xa3, 0x7f, 0x9a, 0x3d,
  0x8d, 0x20, 0xbd, 0x3b, 0x18, 0x11, 0xa9, 0xbd, 0x37, 0x0a, 0x1f, 0x3d,
  0xb6, 0xa0, 0x6a, 0xbc, 0x63, 0x5d, 0x8d, 0xb8, 0xbe, 0x94, 0x7f, 0xbe,
  0x87, 0x0f, 0x70, 0x3e, 0xd5, 0x48, 0x2f, 0x3e, 0x10, 0x50, 0x98, 0xbd,
  0x93, 0x19, 0xda, 0xb6, 0xbf, 0xeb, 0xa1, 0x38, 0x5a, 0x64, 0xf1, 0xbd,
  0x5a, 0xf1, 0x6b, 0x39, 0x69, 0x19, 0xec, 0xbc, 0x94, 0x41, 0xf5, 0x3d,
  0x82, 0x58, 0xe8, 0x3c, 0x55, 0x81, 0x3c, 0x34, 0x55, 0x2a, 0x21, 0x3d,
  0xa5, 0xbd, 0xe7, 0x39, 0xc7, 0xf5, 0x17, 0x3e, 0x15, 0xc7, 0x80, 0xb7,
  0x23, 0x26, 0x9b, 0x3d, 0x66, 0xbf, 0x4a, 0x3e, 0xcb, 0xa3, 0x18, 0x3e,
  0x80, 0x45, 0x01, 0x3d, 0x96, 0xc5, 0xb4, 0xb8, 0xb3, 0x5e, 0x9a, 0xb7,
  0xc1, 0x1b, 0xd5, 0x3d, 0x6a, 0xea, 0x07, 0x39, 0x69, 0x3f, 0x03, 0xbe,
  0xb9, 0x2b, 0xbb, 0x3d, 0x9b, 0x7c, 0x61, 0xbc, 0xb0, 0x7b, 0xa8, 0x3b,
  0x39, 0xa4, 0x0e, 0xbe, 0x68, 0x30, 0xf0, 0x3b, 0x3f, 0x57, 0xa2, 0x3d,
  0xa2, 0x4d, 0x04, 0xb9, 0xec, 0x16, 0x29, 0xbe, 0x10, 0x88, 0xd3, 0x3d,
  0x8f, 0x44, 0xfb, 0xbd, 0xe7, 0xcc, 0xff, 0x3d, 0xc5, 0x15, 0x06, 0x39,
  0x21, 0x8b, 0xec, 0x38, 0x33, 0xca, 0x34, 0x3d, 0xa3, 0xb6, 0xee, 0x37,
  0x3c, 0xde, 0xa7, 0x3d, 0x04, 0x72, 0x0c, 0x3e, 0xfc, 0x57, 0x22, 0xbd,
  0xe7, 0xcc, 0xc9, 0xb9, 0x16, 0x59, 0x31, 0x3e, 0x8c, 0x96, 0xa0, 0xbd,
  0x52, 0x68, 0xca, 0x3d, 0x7e, 0x28, 0xec, 0x37, 0x05, 0x5b, 0x6b, 0xbe,
  0xa9, 0xfe, 0x90, 0xbd, 0xb9, 0x69, 0x68, 0x3e, 0x48, 0x4a, 0xd8, 0x3d,
  0x02, 0x04, 0x8a, 0x38, 0xec, 0xe4, 0xc8, 0x37, 0x49, 0xf9, 0x2c, 0x3c,
  0x6c, 0x4b, 0x9c, 0xb8, 0xb1, 0xdf, 0x9d, 0x3c, 0xc0, 0x4d, 0xb4, 0xbd,
  0xfd, 0x6a, 0x86, 0xbe, 0xda, 0x04, 0xba, 0xbb, 0xdf, 0xa3, 0x10, 0x3e,
  0xd1, 0x97, 0x9d, 0x3d, 0xfe, 0xb4, 0x43, 0x3d, 0x67, 0xfb, 0xfe, 0x38,
  0x74, 0x92, 0x21, 0xbe, 0x1a, 0x82, 0x4a, 0xbd, 0x33, 0xbb, 0x24, 0x3e,
  0x3b, 0xa6, 0x04, 0x3d, 0xb9, 0x37, 0x72, 0xb9, 0xf4, 0xb7, 0xcb, 0x38,
  0xbb, 0x11, 0x45, 0xbd, 0x86, 0x63, 0x80, 0xb9, 0xff, 0x72, 0xc1, 0x3c,
  0xa9, 0x15, 0x72, 0x3d, 0xd0, 0x0a, 0x41, 0xbe, 0x70, 0x14, 0x93, 0x3b,
  0x1b, 0x2c, 0xa7, 0xbb, 0x77, 0xf9, 0x07, 0x3e, 0x80, 0x09, 0x96, 0x3d,
  0x6a, 0xbf, 0x29, 0xb9, 0xf2, 0x31, 0x8d, 0xbe, 0xc8, 0x74, 0x0c, 0x3e,
  0x10, 0x0e, 0x30, 0x3e, 0x27, 0x86, 0x71, 0xbd, 0x2b, 0x4c, 0x7f, 0x39,
  0xf7, 0x72, 0x97, 0xb8, 0x52, 0x70, 0x8b, 0x3c, 0xa2, 0xd2, 0xf1, 0xb7,
  0xc4, 0xe1, 0xad, 0xbb, 0x11, 0x8c, 0x9f, 0xbc, 0x89, 0x89, 0x1f, 0x3d,
  0x4f, 0x4d, 0x39, 0x39, 0xbb, 0x41, 0x7d, 0x3d, 0x6a, 0x36, 0x15, 0xbd,
  0x04, 0x91, 0x4f, 0xbd, 0xf8, 0x3c, 0x87, 0x37, 0x24, 0x73, 0x0e, 0xbe,
  0xd3, 0x50, 0x5c, 0x3d, 0xe9, 0x8f, 0x84, 0x3e, 0xa6, 0xe5, 0xf8, 0xbd,
  0x85, 0x44, 0xb7, 0x37, 0x5c, 0xe7, 0x7a, 0x37, 0xc9, 0x49, 0xf6, 0x3d,
  0xb9, 0x6f, 0x08, 0x39, 0x6d, 0x8a, 0x67, 0xbe, 0x85, 0x9d, 0xc3, 0xbc,
  0x27, 0x92, 0x22, 0xbe, 0xeb, 0xea, 0xc1, 0x39, 0xd5, 0x7b, 0x19, 0x3d,
  0x82, 0x17, 0xcd, 0x3d, 0x04, 0xa0, 0xb8, 0x3d, 0xc8, 0x32, 0xcb, 0xb8,
  0x91, 0xa7, 0x4a, 0xbe, 0xa5, 0xa9, 0xb1, 0xbd, 0x0e, 0x6c, 0x96, 0x3d,
  0xd4, 0xaf, 0x01, 0xbe, 0xca, 0x92, 0x36, 0x38, 0x98, 0x32, 0x1f, 0x39,
  0xe9, 0x23, 0x97, 0xbc, 0xc5, 0x15, 0xe1, 0xb8, 0x89, 0x90, 0x35, 0xbe,
  0x09, 0x78, 0x0c, 0xbd, 0x07, 0xc5, 0x0c, 0xbe, 0x7f, 0xfe, 0x9c, 0x3a,
  0xa6, 0xe9, 0x8c, 0xbc, 0xe7, 0x0a, 0x41, 0x3e, 0x81, 0xa1, 0x8d, 0x3d,
  0xd1, 0xf9, 0xab, 0xb8, 0x9f, 0x35, 0x47, 0x3d, 0x37, 0x4e, 0x36, 0x3d,
  0x6f, 0xa7, 0x13, 0xbd, 0x28, 0x70, 0x19, 0xbe, 0xa7, 0xd5, 0x4a, 0x38,
  0x80, 0x39, 0x7c, 0xb9, 0x63, 0xe1, 0x6b, 0x3c, 0xa4, 0x09, 0x54, 0x38,
  0xf2, 0x0d, 0xcc, 0xbd, 0xda, 0xa7, 0xba, 0xbc, 0x89, 0x43, 0x29, 0xbe,
  0x21, 0x6d, 0x19, 0x3c, 0x5e, 0x54, 0x31, 0x3e, 0x89, 0x4a, 0x58, 0x3e,
  0x6d, 0x4a, 0x2f, 0x3d, 0x87, 0xc4, 0xa5, 0xb7, 0xf9, 0xa8, 0x55, 0xbe,
  0x5a, 0xd0, 0x5e, 0x3b, 0x6c, 0xe0, 0x12, 0xbd, 0xe5, 0x6d, 0xd1, 0x3d,
  0x9a, 0x9a, 0x6e, 0xb8, 0x74, 0xc7, 0x01, 0xb8, 0x6e, 0x8b, 0xbb, 0x3d,
  0xf8, 0x32, 0x25, 0xb9, 0x5c, 0x6e, 0x0a, 0x3e, 0x9c, 0x59, 0x26, 0x3e,
  0x0c, 0x43, 0x62, 0xbd, 0x6d, 0x2c, 0x0b, 0xbd, 0x5e, 0xb9, 0xb5, 0xbd,
  0xcd, 0x09, 0xf7, 0x3d, 0xca, 0x54, 0xcd, 0x3c, 0xfa, 0x37, 0x27, 0xb8,
  0xf6, 0xfe, 0x80, 0x3d, 0x50, 0x12, 0x27, 0x3e, 0x3b, 0x50, 0x76, 0x3e,
  0x94, 0x26, 0x26, 0xbc, 0x35, 0x62, 0xbe, 0xb9, 0x4b, 0xdd, 0xaf, 0x37,
  0xe5, 0x6e, 0x8b, 0x3d, 0x9a, 0xa4, 0xe3, 0x37, 0xaa, 0xa1, 0x9b, 0xbd,
  0x94, 0x06, 0x46, 0x3d, 0x3a, 0xce, 0xff, 0xbd, 0x62, 0xb9, 0x4e, 0x37,
  0xa0, 0xf3, 0x32, 0x3e, 0xcf, 0xbd, 0x90, 0xbd, 0x3d, 0x8b, 0x86, 0x3d,
  0x58, 0xcd, 0xbe, 0xb7, 0xd4, 0x68, 0xe4, 0x3d, 0x60, 0x05, 0x38, 0xbe,
  0xf2, 0xcf, 0xb9, 0xbc, 0x7d, 0x6a, 0x61, 0xbe, 0x8c, 0x89, 0x12, 0x39,
  0xbd, 0x5e, 0x79, 0xb8, 0xb3, 0xa5, 0xa8, 0xbd, 0x80, 0x67, 0x65, 0xb8,
  0x88, 0xfd, 0x63, 0xbd, 0xdf, 0xba, 0xc2, 0xbd, 0xed, 0x8a, 0x3a, 0x3e,
  0x80, 0xa3, 0xd0, 0x3c, 0x0d, 0xed, 0xbd, 0xbc, 0x29, 0x1a, 0x6e, 0x3b,
  0xb2, 0xf0, 0xa0, 0x3d, 0x51, 0x79, 0x4c, 0x38, 0xe8, 0x5a, 0x72, 0xbd,
  0x75, 0xd0, 0x00, 0x3e, 0x7d, 0x2c, 0xa1, 0xbc, 0x17, 0xaf, 0x68, 0xbd,
  0x5e, 0xfe, 0xa9, 0xb9, 0xab, 0x22, 0x55, 0xb8, 0x81, 0x5f, 0xee, 0x3d,
  0x70, 0x1e, 0x7f, 0x38, 0xbe, 0x23, 0x0d, 0xbc, 0x39, 0x94, 0x2d, 0x3e,
  0xbe, 0x7e, 0xb8, 0x3b, 0x50, 0xdd, 0x17, 0x3d, 0x10, 0x20, 0x0d, 0x3e,
  0xf3, 0x9e, 0xa9, 0x3d, 0xb9, 0x04, 0x34, 0x3e, 0x94, 0x69, 0xc6, 0xb9,
  0xd9, 0xd2, 0xd9, 0x3d, 0x2f, 0x17, 0x1f, 0x3e, 0xdb, 0xa1, 0x01, 0x3e,
  0xa5, 0x16, 0xa1, 0xbd, 0xcf, 0x61, 0x14, 0x39, 0xcd, 0x27, 0x6b, 0x39,
  0x62, 0xb2, 0x37, 0x3e, 0x59, 0xf0, 0xcf, 0xb9, 0xf4, 0x29, 0x08, 0x3e,
  0xc3, 0xc8, 0xec, 0x3d, 0xef, 0x82, 0xc3, 0x3c, 0x4d, 0x10, 0xc8, 0x3b,
  0x9c, 0x10, 0x4b, 0x3e, 0x64, 0x99, 0x59, 0x3d, 0xd4, 0xed, 0x27, 0x3e,
  0x2a, 0x4c, 0x46, 0x39, 0x4d, 0x42, 0xd5, 0xbd, 0x40, 0xd2, 0x85, 0xbc,
  0xf4, 0x2d, 0xd4, 0x3d, 0x76, 0xbc, 0x51, 0xbd, 0xb6, 0xd5, 0xd8, 0xb7,
  0x1e, 0xb5, 0x2f, 0x37, 0x91, 0x7a, 0x29, 0xbc, 0x11, 0x42, 0x92, 0x39,
  0xba, 0x28, 0xc6, 0xbd, 0x8f, 0xc7, 0x0a, 0xbe, 0xeb, 0xfb, 0xd3, 0x3b,
  0x54, 0x1d, 0xb2, 0xbc, 0xf1, 0xb7, 0x8a, 0xbd, 0x1f, 0x10, 0x38, 0x3b,
  0x6a, 0x8d, 0xf3, 0xbb, 0x1e, 0xfd, 0x17, 0x39, 0xa8, 0x0d, 0x14, 0xbd,
  0x8a, 0xd1, 0x27, 0x3e, 0x22, 0xb8, 0xc1, 0x3d, 0x95, 0x20, 0x05, 0xbe,
  0x6f, 0x7b, 0x91, 0x37, 0x4c, 0xb6, 0xcb, 0xb8, 0x4a, 0x95, 0x82, 0xbd,
  0x49, 0x0b, 0x55, 0x37, 0x2f, 0x65, 0x34, 0x3e, 0x78, 0xe9, 0xe7, 0x3d,
  0xd6, 0x61, 0x44, 0xbd, 0xd0, 0x04, 0x22, 0x3c, 0x88, 0xa2, 0x2a, 0x3e,
  0xab, 0x0c, 0x0b, 0xbe, 0x57, 0xdf, 0xba, 0x3d, 0x42, 0x1f, 0x2f, 0x37,
  0xae, 0x5f, 0xc6, 0xbd, 0xcf, 0xf1, 0x86, 0x3e, 0xeb, 0xc8, 0x31, 0xbc,
  0xb3, 0xcd, 0x03, 0xbe, 0xa5, 0xe4, 0x81, 0x39, 0x12, 0x61, 0x81, 0x39,
  0xa9, 0x96, 0xf4, 0x3a, 0x94, 0xea, 0x1e, 0x38, 0x01, 0x99, 0x2e, 0xbd,
  0xd9, 0xa9, 0xd9, 0xbd, 0x51, 0x3e, 0x2a, 0x3d, 0xc4, 0x9a, 0xdb, 0x3c,
  0xdc, 0xfd, 0x9e, 0x3d, 0x10, 0x84, 0xc3, 0xbd, 0x72, 0x33, 0xa8, 0xbd,
  0x5d, 0x1b, 0x0d, 0xb9, 0x72, 0x86, 0x4a, 0x3e, 0xfc, 0x7b, 0x9b, 0x3e,
  0x4e, 0x5a, 0x44, 0x3e, 0x97, 0xee, 0x7f, 0xbd, 0xf4, 0x7c, 0xdd, 0xb9,
  0x15, 0x07, 0x62, 0x38, 0x56, 0xbe, 0xcd, 0x39, 0x70, 0xab, 0x9e, 0x38,
  0x33, 0x5b, 0x4d, 0x3c, 0xed, 0xf9, 0xd6, 0x3d, 0xff, 0xc8, 0x1d, 0x3e,
  0xdb, 0x19, 0x02, 0x3d, 0xe2, 0x87, 0xd6, 0x3d, 0x3e, 0xea, 0xd7, 0xbd,
  0x85, 0x9f, 0xf1, 0x3d, 0x77, 0xe0, 0x0f, 0x36, 0x2d, 0x37, 0x25, 0x3e,
  0x90, 0x06, 0x5d, 0x3d, 0x65, 0x6e, 0x5e, 0xbd, 0x67, 0xb1, 0xb3, 0xbd,
  0x2b, 0xe2, 0xec, 0xb7, 0xb3, 0x7f, 0x3e, 0x39, 0x52, 0x4d, 0xb1, 0xbd,
  0xf0, 0xf0, 0x2f, 0x39, 0x61, 0x1b, 0xcb, 0x3d, 0x8d, 0x06, 0x46, 0xbe,
  0x34, 0x48, 0xc3, 0x3d, 0x98, 0x2b, 0x11, 0x3d, 0xd5, 0x63, 0xdc, 0xbd,
  0xb2, 0xa8, 0xb3, 0xbd, 0x2e, 0xae, 0x21, 0xbe, 0x5c, 0xa1, 0x1c, 0xb9,
  0x4a, 0xff, 0x0a, 0x3c, 0x1a, 0x10, 0xcd, 0x3e, 0x60, 0xaa, 0x40, 0x3e,
  0x34, 0x2e, 0x9f, 0xbd, 0xbb, 0x40, 0x26, 0x38, 0xc8, 0x32, 0xd5, 0xb8,
  0x46, 0x5c, 0xc5, 0x3c, 0x7d, 0xaf, 0xd7, 0xb9, 0xac, 0x88, 0x95, 0x3d,
  0x22, 0x2b, 0xb8, 0xbd, 0x7a, 0x65, 0xa9, 0xbc, 0x50, 0x72, 0xc6, 0x3b,
  0x20, 0x51, 0x2c, 0x3e, 0x72, 0x58, 0xb4, 0xbd, 0x30, 0x6b, 0x37, 0x3d,
  0x01, 0x5a, 0x07, 0x38, 0xef, 0xcd, 0x2a, 0x3e, 0x2c, 0x7a, 0x9b, 0x3e,
  0x8e, 0xfd, 0xd7, 0xbb, 0x8e, 0xe1, 0x02, 0x3e, 0x9d, 0xb7, 0x2a, 0x39,
  0xb6, 0x55, 0xd8, 0xb7, 0xbd, 0x09, 0x0b, 0xbe, 0xe7, 0x49, 0x09, 0xb9,
  0x8c, 0x1e, 0x62, 0xbd, 0x32, 0xeb, 0xff, 0xff, 0x30, 0x00, 0x00, 0x00,
  0x09, 0x00, 0x00, 0x00, 0x08, 0x00, 0x00, 0x00, 0x38, 0x00, 0x00, 0x00,
  0x1a, 0x00, 0x00, 0x00, 0x73, 0x65, 0x71, 0x75, 0x65, 0x6e, 0x74, 0x69,
  0x61, 0x6c, 0x2f, 0x63, 0x6f, 0x6e, 0x76, 0x32, 0x64, 0x5f, 0x32, 0x2f,
  0x43, 0x6f, 0x6e, 0x76, 0x32, 0x44, 0x00, 0x00, 0x04, 0x00, 0x00, 0x00,
  0x04, 0x00, 0x00, 0x00, 0x03, 0x00, 0x00, 0x00, 0x03, 0x00, 0x00, 0x00,
  0x10, 0x00, 0x00, 0x00, 0x28, 0xea, 0xff, 0xff, 0x0a, 0xeb, 0xff, 0xff,
  0x04, 0x00, 0x00, 0x00, 0x00, 0x10, 0x00, 0x00, 0x46, 0x88, 0xe3, 0x3d,
  0x76, 0xf7, 0xb8, 0x3d, 0x59, 0x9e, 0x4c, 0x3d, 0xfc, 0x1f, 0xde, 0x3c,
  0xfb, 0x77, 0x76, 0xbe, 0x13, 0xf2, 0x0b, 0xbd, 0x7b, 0x31, 0x06, 0xbd,
  0x07, 0x67, 0xe1, 0x3d, 0x07, 0x60, 0x3c, 0x3d, 0x60, 0x65, 0xe6, 0x3c,
  0x6e, 0x8a, 0xf2, 0x3c, 0x96, 0x47, 0x67, 0x3d, 0xc6, 0x96, 0x82, 0xbd,
  0x8b, 0xd1, 0x20, 0xbd, 0xd0, 0x52, 0xa2, 0x3c, 0x3a, 0x6a, 0x8e, 0xbc,
  0x81, 0xa0, 0x04, 0x3e, 0xe6, 0x47, 0xd4, 0x3d, 0xf5, 0x22, 0x89, 0xbd,
  0xe4, 0x21, 0xb6, 0x3d, 0xab, 0xb3, 0x37, 0xbe, 0xa0, 0xf3, 0x0b, 0xbd,
  0xb3, 0x35, 0x3c, 0x3d, 0x5e, 0x21, 0xa7, 0x3d, 0x7d, 0x85, 0xa8, 0x3d,
  0x77, 0x48, 0xb8, 0xbc, 0x26, 0x2c, 0x7f, 0xbd, 0xd4, 0xbb, 0x97, 0x3b,
  0xe1, 0x70, 0x97, 0xbd, 0x05, 0x7c, 0x9e, 0x3d, 0x18, 0xd5, 0x84, 0xbd,
  0xde, 0x7d, 0x29, 0xbc, 0xea, 0xd9, 0x80, 0x3d, 0xcd, 0xf0, 0xbb, 0x3d,
  0x5d, 0xdb, 0x44, 0xbd, 0xca, 0x23, 0xd9, 0x3d, 0x92, 0xc5, 0xff, 0xbd,
  0xb3, 0xe0, 0x0a, 0xbd, 0x8b, 0x69, 0xdd, 0x3c, 0x89, 0xf3, 0xc7, 0x3c,
  0x35, 0xd2, 0xf4, 0x3d, 0xf6, 0x54, 0xc4, 0x3d, 0xf2, 0xc1, 0xa7, 0x3b,
  0xd7, 0xe1, 0x99, 0x3b, 0x79, 0xf2, 0x23, 0xbd, 0xe9, 0x02, 0xaa, 0x3d,
  0x7c, 0x31, 0xe9, 0x3b, 0x35, 0x71, 0x01, 0x3d, 0x2e, 0x46, 0x8a, 0x3d,
  0x5e, 0xf8, 0x0d, 0x3e, 0x0d, 0x59, 0x6e, 0xbd, 0x2f, 0x3d, 0x5e, 0x3b,
  0x2c, 0xad, 0x90, 0xbd, 0xd6, 0xac, 0xae, 0x3d, 0x57, 0x21, 0xf2, 0xbc,
  0xbb, 0x53, 0xd8, 0x3d, 0x64, 0x81, 0x8d, 0x3d, 0xe7, 0x8d, 0x79, 0xbc,
  0xa9, 0x83, 0x8a, 0xbd, 0x94, 0x79, 0xbc, 0x3c, 0xcb, 0x38, 0x71, 0x3c,
  0xea, 0x05, 0x82, 0x3c, 0xdd, 0x89, 0x3b, 0x3d, 0xb8, 0xd4, 0x9a, 0x3c,
  0x4b, 0x4c, 0xe5, 0x3c, 0xae, 0x8f, 0x43, 0x3d, 0xd8, 0xf9, 0xbd, 0xbc,
  0x45, 0xcf, 0x0c, 0x3e, 0x80, 0x96, 0xcc, 0xbc, 0xbf, 0xd1, 0x9c, 0x3c,
  0x2f, 0x11, 0xa0, 0xbd, 0x04, 0xd8, 0x88, 0x3d, 0x1a, 0x2a, 0xa1, 0xbb,
  0xdb, 0x46, 0x6f, 0x3d, 0xac, 0xaa, 0xa4, 0xbd, 0x04, 0x68, 0x87, 0x3d,
  0x5b, 0xd9, 0xc6, 0xbc, 0x35, 0xb9, 0xba, 0x3d, 0x79, 0x37, 0x59, 0x3c,
  0xba, 0xed, 0xb1, 0x3d, 0x2c, 0xcf, 0xed, 0x3d, 0x32, 0x51, 0xa9, 0x3d,
  0xb4, 0x61, 0x17, 0xbc, 0x41, 0xfb, 0x0a, 0x3e, 0xe5, 0x8a, 0xac, 0xbd,
  0xba, 0xb0, 0x5e, 0x3c, 0x6d, 0x2e, 0xd2, 0x3c, 0x6b, 0x9b, 0x1d, 0x3e,
  0xb1, 0x28, 0x92, 0xbd, 0xcf, 0xf5, 0x08, 0xbd, 0x5b, 0x2d, 0x61, 0xbd,
  0x1f, 0x46, 0x68, 0xbd, 0x8e, 0xdf, 0x21, 0x3d, 0x60, 0x27, 0x36, 0x3d,
  0x17, 0xaa, 0x08, 0x3b, 0x5b, 0xd1, 0x60, 0x3d, 0x05, 0x05, 0x24, 0x3d,
  0x15, 0xa2, 0xe0, 0x3d, 0x23, 0x74, 0x4d, 0x3d, 0xc5, 0x6a, 0x88, 0x3d,
  0x78, 0xf9, 0xf2, 0xbd, 0xe0, 0xe8, 0xa8, 0xbc, 0x4a, 0x29, 0x41, 0x3c,
  0xa7, 0xae, 0x05, 0x3e, 0xd1, 0x04, 0xea, 0xbd, 0xcb, 0xb5, 0x77, 0xbd,
  0x30, 0xe5, 0x00, 0x3d, 0xaf, 0x36, 0xdb, 0xbc, 0x26, 0xb9, 0xd0, 0x3c,
  0x1e, 0xa0, 0x67, 0xbc, 0x7a, 0x69, 0x9c, 0x3c, 0xa7, 0xdf, 0xbd, 0x3c,
  0xd5, 0x8d, 0xc3, 0x3d, 0x96, 0x13, 0x1d, 0x3d, 0xb4, 0x37, 0x5b, 0x3d,
  0x22, 0x68, 0x0c, 0x3d, 0xef, 0x7d, 0x94, 0xbd, 0x03, 0xc3, 0x5e, 0xbd,
  0xd2, 0x86, 0x44, 0xbd, 0xa6, 0x09, 0x21, 0x3e, 0x55, 0x77, 0xd8, 0xbd,
  0x73, 0xfd, 0x57, 0x3d, 0xdd, 0xe0, 0xad, 0xbb, 0xa5, 0x04, 0x7f, 0xbc,
  0x4c, 0x38, 0x0b, 0xbd, 0x59, 0xb3, 0x20, 0xbd, 0xdb, 0xa6, 0x38, 0x3d,
  0x66, 0x4b, 0xc5, 0x3d, 0xb7, 0x14, 0x68, 0x3d, 0x62, 0x01, 0x1e, 0x3e,
  0x56, 0x55, 0x74, 0x3c, 0x88, 0x6e, 0xd0, 0x3d, 0x34, 0x31, 0x68, 0xbe,
  0x23, 0x96, 0x96, 0x3c, 0xb2, 0xd5, 0x0c, 0xbd, 0xdb, 0x28, 0x2d, 0x3d,
  0x15, 0xd9, 0xbf, 0x3d, 0xaa, 0x3b, 0xa1, 0x3c, 0x15, 0xb9, 0x24, 0x3d,
  0xbe, 0x88, 0xeb, 0xbc, 0x6a, 0x01, 0x9a, 0xbb, 0x9d, 0x5f, 0x6a, 0x3d,
  0xff, 0xf9, 0x1e, 0xbd, 0x97, 0x45, 0xbb, 0x3d, 0x53, 0xe3, 0xe6, 0x3d,
  0x93, 0xda, 0x3c, 0x3e, 0x08, 0x0b, 0x04, 0xbc, 0x0c, 0xdc, 0xe8, 0x3d,
  0x1a, 0x5b, 0xec, 0xbc, 0xce, 0x47, 0x63, 0x3d, 0x9c, 0x73, 0xff, 0x3c,
  0xb0, 0x67, 0xe3, 0x3d, 0xde, 0x46, 0xa2, 0x3d, 0x66, 0xd0, 0xaa, 0x3c,
  0x82, 0xd9, 0x98, 0x3d, 0x1b, 0x05, 0x26, 0xbd, 0x08, 0x41, 0xb2, 0x3c,
  0xda, 0xcb, 0x22, 0xbd, 0x3f, 0xea, 0x6c, 0xbd, 0x0f, 0x72, 0xc0, 0xbc,
  0xdd, 0x65, 0xac, 0xbb, 0x52, 0x4d, 0x5f, 0x3d, 0x08, 0x6d, 0x3c, 0x3d,
  0x91, 0x48, 0x50, 0x3a, 0x47, 0x1f, 0x3e, 0xbe, 0x91, 0x59, 0x59, 0x3b,
  0xe7, 0xd0, 0xab, 0x3c, 0x5e, 0x54, 0xb0, 0x3d, 0xb4, 0x42, 0xe0, 0x3c,
  0x78, 0xc7, 0xff, 0x3c, 0x44, 0x76, 0x01, 0xbc, 0x18, 0xf2, 0xa1, 0xbc,
  0x28, 0x7d, 0x60, 0x3d, 0x75, 0x95, 0x40, 0x3b, 0x2b, 0x03, 0xb0, 0x3b,
  0x11, 0xfc, 0x0d, 0xbd, 0x71, 0x83, 0x65, 0x3c, 0xe2, 0xe1, 0x5a, 0x3d,
  0xa1, 0x29, 0x59, 0x3c, 0x3e, 0x3d, 0x2b, 0x3d, 0x1c, 0xf6, 0x09, 0xbe,
  0xdf, 0x13, 0x55, 0xbc, 0x15, 0xad, 0x00, 0xbb, 0x57, 0x2a, 0x30, 0x3d,
  0x0c, 0x6e, 0x8b, 0x3b, 0x02, 0x5f, 0x2f, 0x3d, 0xd8, 0x49, 0x85, 0x3d,
  0xb3, 0x31, 0x42, 0x3c, 0xc8, 0x93, 0x98, 0xbb, 0xe9, 0x26, 0x4b, 0xbc,
  0x73, 0x99, 0xf5, 0x3c, 0xed, 0x06, 0xaf, 0xbc, 0x0f, 0xf6, 0x98, 0x3d,
  0x06, 0xc9, 0xae, 0x3d, 0x73, 0x2b, 0x72, 0xbb, 0x01, 0x81, 0x80, 0x3c,
  0x3a, 0x33, 0xdb, 0xbd, 0xae, 0x8b, 0x24, 0x3d, 0x19, 0x87, 0x72, 0x3d,
  0xff, 0x85, 0xa2, 0xbb, 0x6f, 0x26, 0xc2, 0xbb, 0x07, 0x31, 0xd9, 0xbc,
  0x67, 0xf1, 0x48, 0xbc, 0x78, 0x1b, 0x94, 0xbd, 0xeb, 0xa1, 0x8b, 0xbd,
  0xd9, 0x04, 0xb5, 0x3d, 0xde, 0xfe, 0xed, 0xbc, 0x26, 0x89, 0x6f, 0xbc,
  0x3a, 0x54, 0xee, 0x3d, 0x8f, 0x46, 0xe3, 0x3d, 0x6b, 0x76, 0x61, 0xbd,
  0xf8, 0x7c, 0xec, 0x3d, 0x4b, 0x03, 0xc9, 0xbd, 0xe8, 0x05, 0x3f, 0xbd,
  0x62, 0xd0, 0x75, 0xbc, 0xfd, 0x7f, 0x9c, 0x3d, 0xd2, 0x07, 0xf6, 0xbd,
  0xbb, 0x64, 0x1e, 0xbd, 0x34, 0x3d, 0x91, 0x3b, 0x5f, 0x1d, 0x22, 0xbd,
  0x23, 0x5e, 0x92, 0xbd, 0x49, 0x08, 0x0f, 0xbc, 0x60, 0xf9, 0x79, 0xbc,
  0xa0, 0x25, 0xc1, 0x3a, 0xb7, 0x80, 0xb3, 0x3d, 0x18, 0xde, 0x88, 0x3d,
  0x65, 0xbb, 0x6a, 0x3d, 0x8a, 0x93, 0x4b, 0x3d, 0xdd, 0x15, 0xed, 0xbd,
  0x26, 0x16, 0x87, 0x3c, 0xcb, 0x3d, 0x8e, 0x3d, 0x56, 0xd9, 0xb4, 0x3d,
  0x3a, 0x91, 0x29, 0xbe, 0xe8, 0x4c, 0xd7, 0x3c, 0x7c, 0x74, 0xc0, 0xbd,
  0xe6, 0xc1, 0x92, 0xbd, 0xf9, 0x26, 0xe3, 0x3c, 0x3c, 0xff, 0xbb, 0x3d,
  0xa1, 0x07, 0x17, 0xbb, 0x38, 0x33, 0xc4, 0x3d, 0xcb, 0x50, 0xcc, 0x3d,
  0x1b, 0x2d, 0x00, 0x3e, 0x42, 0xef, 0x13, 0x3d, 0x97, 0xe6, 0xfc, 0x3c,
  0x9e, 0x94, 0x23, 0xbe, 0xc1, 0x4b, 0x81, 0xbc, 0xba, 0x10, 0x53, 0x3d,
  0xa3, 0xc3, 0x04, 0x3d, 0xc2, 0x17, 0xca, 0xbb, 0x95, 0x98, 0xb6, 0xbc,
  0x82, 0x9d, 0xf4, 0xbc, 0x57, 0x7f, 0x88, 0x3d, 0x35, 0xfc, 0x21, 0x3b,
  0xea, 0x3a, 0x05, 0x3d, 0x86, 0x0d, 0x84, 0xbd, 0x4a, 0xd8, 0xe8, 0x3d,
  0x73, 0xb7, 0x16, 0x3d, 0x37, 0xb2, 0x44, 0x3d, 0x05, 0xcc, 0xe5, 0xbc,
  0x18, 0x9b, 0x08, 0x3e, 0x93, 0xd4, 0x42, 0x3d, 0x61, 0x7a, 0x10, 0xbd,
  0xc6, 0x35, 0x23, 0xbb, 0x22, 0x31, 0x4b, 0xbd, 0x9a, 0x5c, 0x00, 0x3e,
  0xf5, 0xfb, 0x6a, 0x3d, 0xdd, 0x08, 0x49, 0x3d, 0x6d, 0x73, 0x8e, 0xbb,
  0xc5, 0x9d, 0xb7, 0x3c, 0x67, 0x05, 0x2d, 0x3d, 0xf9, 0x07, 0x10, 0xbd,
  0xf2, 0xfe, 0x9a, 0x3d, 0xf4, 0x13, 0x11, 0x3e, 0xfa, 0xa7, 0x7b, 0x3c,
  0x94, 0xb8, 0x37, 0xbd, 0x87, 0xbc, 0x34, 0x3d, 0xd9, 0x35, 0x38, 0x3e,
  0xa2, 0x38, 0x8c, 0x3d, 0x04, 0x73, 0x0a, 0x3d, 0x3f, 0x02, 0x87, 0x3d,
  0x98, 0x2a, 0x07, 0x3d, 0x1a, 0x4c, 0x13, 0x3d, 0x76, 0x44, 0x11, 0x3d,
  0x4f, 0x63, 0x55, 0x3d, 0xa8, 0xd5, 0xac, 0x3c, 0x6e, 0x71, 0x97, 0x3d,
  0x5c, 0xb6, 0x0e, 0xbd, 0xaf, 0x2c, 0xee, 0xbc, 0x01, 0x6b, 0xb4, 0x3d,
  0x88, 0x74, 0x8d, 0x3d, 0x0a, 0x1e, 0x38, 0xbc, 0x4f, 0xf9, 0x04, 0x3e,
  0xf4, 0x35, 0x27, 0x3e, 0xb8, 0x09, 0xae, 0x3d, 0xd6, 0xab, 0x00, 0xbd,
  0x64, 0xb9, 0x09, 0x3c, 0x21, 0x0e, 0x9f, 0x3d, 0xac, 0xb9, 0x1d, 0x3d,
  0xda, 0x30, 0x09, 0x3b, 0xf5, 0x7d, 0x91, 0xbd, 0xf6, 0xbd, 0x3f, 0x3d,
  0xc2, 0x95, 0xbf, 0x3d, 0xb5, 0x75, 0x3c, 0x3d, 0x3b, 0x66, 0x8d, 0xbc,
  0xa0, 0xdc, 0x1e, 0x3d, 0x7d, 0xa5, 0xb0, 0x3d, 0x8b, 0xf4, 0x2e, 0xba,
  0x38, 0x7e, 0x4e, 0x3d, 0x2e, 0x5a, 0x42, 0x3d, 0x8d, 0x7a, 0x60, 0x3d,
  0xf7, 0xc7, 0xfe, 0xbc, 0xb3, 0xee, 0xbc, 0x3c, 0x85, 0x5d, 0x9c, 0x3d,
  0xb4, 0xdc, 0xad, 0xbd, 0xad, 0x00, 0x6d, 0xbd, 0x7f, 0xc4, 0x22, 0xbd,
  0xdc, 0x69, 0x23, 0xbd, 0x11, 0xcf, 0x0b, 0x3d, 0x64, 0x13, 0x36, 0xbd,
  0x41, 0x19, 0xfa, 0xba, 0x77, 0x18, 0xc9, 0x3d, 0x65, 0x83, 0x3e, 0x3d,
  0xe2, 0x7d, 0xa8, 0xbc, 0x17, 0x18, 0x37, 0x3d, 0xce, 0x52, 0x28, 0x3e,
  0x85, 0xbd, 0x2a, 0x3d, 0xb7, 0x69, 0x83, 0x3c, 0x57, 0xa3, 0x20, 0x3c,
  0xe5, 0x92, 0x11, 0x3b, 0x1c, 0xe7, 0xc6, 0x3c, 0x5e, 0xb7, 0x70, 0xba,
  0x4f, 0x52, 0x40, 0x3d, 0x2d, 0x76, 0x6f, 0xbc, 0x38, 0x76, 0xdd, 0x3c,
  0x98, 0xf5, 0x52, 0xbd, 0xbc, 0x22, 0x38, 0x3d, 0x58, 0x0b, 0x78, 0x3d,
  0x7d, 0x2d, 0xd0, 0xbc, 0x4f, 0xa3, 0x5b, 0x3a, 0x45, 0x8b, 0x8f, 0x3d,
  0x8e, 0xe1, 0xca, 0x3d, 0xe1, 0x38, 0x86, 0xbb, 0x92, 0x14, 0xcf, 0x3c,
  0xdd, 0x36, 0x93, 0x3c, 0xc2, 0xb4, 0x11, 0xbd, 0x77, 0xe4, 0xca, 0xbd,
  0xea, 0xa6, 0x66, 0x3c, 0x3b, 0xe0, 0xf0, 0xbc, 0xd8, 0x59, 0x3a, 0xbc,
  0xb4, 0xf3, 0x3f, 0x3d, 0x2c, 0x44, 0x5f, 0x3d, 0x6a, 0xe1, 0xaa, 0x3d,
  0x59, 0x74, 0x46, 0x3c, 0x55, 0xb7, 0x8a, 0x3d, 0xbb, 0xe7, 0x7d, 0x3d,
  0xa3, 0x41, 0x21, 0x3e, 0x92, 0xf4, 0x07, 0x3e, 0xfb, 0x0e, 0x94, 0xbc,
  0x30, 0x63, 0x99, 0xbd, 0xd3, 0x1b, 0xec, 0x3d, 0x29, 0xa9, 0x32, 0xbd,
  0x9d, 0x8d, 0x6c, 0xbc, 0x24, 0x41, 0x2a, 0xbd, 0x7b, 0xf8, 0x2b, 0xbd,
  0x1d, 0x93, 0x42, 0xbd, 0xce, 0xa4, 0x51, 0x3d, 0xee, 0xec, 0x09, 0x3b,
  0x1c, 0x5f, 0xc6, 0x3c, 0xfd, 0xcc, 0x3b, 0x3c, 0xec, 0x26, 0xe0, 0x3d,
  0x23, 0x0d, 0xba, 0xbc, 0xd4, 0xf3, 0x25, 0x3d, 0x1f, 0xba, 0xcb, 0x3d,
  0x21, 0xcf, 0xfa, 0xbc, 0x01, 0xf7, 0x3a, 0xbc, 0xa4, 0x32, 0x30, 0x3d,
  0x81, 0x7f, 0x37, 0xbd, 0x9c, 0xbc, 0x88, 0x3c, 0x5c, 0xed, 0xa1, 0xbd,
  0xcd, 0x9d, 0x89, 0xbb, 0xb5, 0x16, 0x8b, 0xbd, 0x63, 0xf9, 0xe7, 0xbc,
  0xcc, 0x9d, 0xba, 0xbc, 0x04, 0xdf, 0x1b, 0x3d, 0x9d, 0x69, 0x14, 0x3e,
  0xba, 0x6f, 0x3d, 0x3e, 0x38, 0x4a, 0x08, 0xbd, 0xc2, 0xcf, 0xfc, 0x3d,
  0x02, 0xec, 0x36, 0xbe, 0xb4, 0x2b, 0x48, 0x3d, 0xc8, 0xdb, 0x92, 0xbd,
  0xdf, 0xbd, 0x24, 0xbc, 0xb4, 0xa6, 0xbb, 0x3c, 0x29, 0x90, 0x41, 0x3d,
  0xfd, 0xc7, 0x50, 0x3d, 0x92, 0xfc, 0x82, 0x3d, 0x2c, 0x4a, 0x54, 0xbd,
  0xc6, 0x70, 0x18, 0xbd, 0xe8, 0xfe, 0x3c, 0x3d, 0x14, 0xdc, 0x27, 0x3d,
  0xb2, 0xff, 0x0d, 0x3d, 0x4f, 0x93, 0x29, 0x3e, 0x44, 0x5f, 0x39, 0x3d,
  0xe5, 0x04, 0xb2, 0x3d, 0x8e, 0xe7, 0x59, 0xbe, 0x62, 0x8c, 0x21, 0x3b,
  0xbe, 0x8d, 0x9d, 0x3c, 0x06, 0xd7, 0x3e, 0x3d, 0x35, 0x2e, 0x3f, 0xbc,
  0x40, 0xff, 0xe8, 0xbc, 0x12, 0xfd, 0x77, 0x3d, 0x3c, 0x4e, 0x9e, 0xbd,
  0x65, 0xd7, 0xfd, 0x3b, 0xb5, 0x30, 0x26, 0xbd, 0xc3, 0xc9, 0x84, 0xbd,
  0xf3, 0x20, 0x84, 0x3d, 0x61, 0x1e, 0xfd, 0x3d, 0x82, 0x7d, 0x0f, 0x3e,
  0x9f, 0x18, 0x05, 0xbd, 0x48, 0xd5, 0x7e, 0x3c, 0xd9, 0x66, 0xd3, 0xbd,
  0x21, 0x65, 0x8c, 0x3d, 0xf3, 0x7f, 0x62, 0xbd, 0xd9, 0x1c, 0x7e, 0xbd,
  0x59, 0x68, 0x9c, 0xbc, 0x20, 0xa7, 0x48, 0xbd, 0xac, 0x30, 0x89, 0x3d,
  0x80, 0x45, 0x70, 0xbd, 0xfc, 0x37, 0x90, 0x3d, 0x7d, 0x0c, 0xef, 0xbb,
  0x07, 0xa2, 0xe9, 0xbc, 0x37, 0x95, 0x84, 0x3d, 0x52, 0x47, 0xfe, 0x3d,
  0x09, 0x36, 0x00, 0x3e, 0x52, 0xff, 0x66, 0xbd, 0x84, 0xcd, 0x27, 0x3c,
  0xaa, 0x9c, 0x59, 0xbe, 0x67, 0xef, 0x55, 0xbd, 0xf1, 0xef, 0xca, 0x3c,
  0x8d, 0x73, 0x76, 0xbd, 0xeb, 0x1f, 0xe2, 0x3c, 0x1a, 0x12, 0x7d, 0x3d,
  0x89, 0xaa, 0x47, 0x3d, 0xe1, 0x9f, 0x83, 0x3c, 0x5c, 0x29, 0xfb, 0x3c,
  0xfc, 0xde, 0x93, 0x3c, 0x1b, 0x28, 0x93, 0x3d, 0x01, 0xf4, 0x45, 0x3d,
  0x13, 0x55, 0x3e, 0x3d, 0xc2, 0x72, 0x3c, 0x3e, 0x8c, 0x44, 0x5f, 0x3d,
  0xf1, 0x4d, 0x02, 0x3c, 0xa6, 0xe9, 0x05, 0xbe, 0x47, 0x95, 0x6c, 0x3b,
  0x00, 0x10, 0x86, 0xbc, 0x89, 0x5b, 0x0a, 0xbc, 0xe4, 0x60, 0xb5, 0x3c,
  0x34, 0xbf, 0x99, 0xbd, 0xaa, 0x83, 0x8a, 0xbd, 0xba, 0x6c, 0x80, 0x3d,
  0x9d, 0x9d, 0x70, 0x3c, 0x2e, 0x04, 0xab, 0x3c, 0x1a, 0xec, 0x96, 0xbd,
  0x1c, 0xa4, 0x18, 0xbd, 0x2a, 0x6d, 0x25, 0x3d, 0x1c, 0x63, 0xfb, 0x3d,
  0x8e, 0x5e, 0xb4, 0x3c, 0x04, 0x9a, 0xc6, 0x3d, 0x4f, 0x21, 0x15, 0xbe,
  0xdb, 0x36, 0x88, 0x3d, 0x06, 0x07, 0x0e, 0x3c, 0xfb, 0x70, 0x3f, 0xbd,
  0x45, 0x98, 0x0d, 0xbe, 0x79, 0x6c, 0xbb, 0xbd, 0x68, 0xc9, 0x5d, 0xbd,
  0xa5, 0xb2, 0x90, 0x3c, 0xf7, 0xa6, 0x70, 0xbd, 0x11, 0x97, 0xe6, 0x3d,
  0x25, 0x7b, 0x1d, 0x3d, 0xf1, 0x82, 0x80, 0xbc, 0x7c, 0xc2, 0x84, 0x3d,
  0xb6, 0x63, 0x1e, 0x3e, 0x02, 0xad, 0x71, 0xbc, 0x41, 0x97, 0x1b, 0x3e,
  0xd7, 0x95, 0x06, 0xbe, 0xfd, 0x76, 0x67, 0x3d, 0x50, 0x62, 0x87, 0x3d,
  0xa2, 0x53, 0xa0, 0x3d, 0x5b, 0x07, 0x3f, 0xbe, 0xe8, 0xe6, 0xee, 0xbc,
  0xd2, 0xf5, 0xbc, 0x3b, 0xc9, 0x28, 0x42, 0xbd, 0x9c, 0x17, 0x9d, 0xbd,
  0xc2, 0x58, 0xdf, 0xbb, 0xeb, 0x6a, 0xf1, 0xbc, 0x35, 0x99, 0x31, 0x3d,
  0x2a, 0x89, 0xa9, 0x39, 0xb0, 0x15, 0xce, 0x3d, 0xe6, 0xbd, 0x64, 0x3d,
  0x57, 0x89, 0x37, 0x3d, 0x1b, 0x8b, 0x12, 0xbe, 0x6f, 0xde, 0x1a, 0x3d,
  0x4a, 0x2b, 0x92, 0x3c, 0x46, 0x7b, 0xb4, 0x3c, 0x94, 0xba, 0x42, 0xbe,
  0x7b, 0x69, 0x97, 0xbc, 0x9a, 0x76, 0xe4, 0xbc, 0x9b, 0xd1, 0xd6, 0xbc,
  0xc5, 0x34, 0x19, 0x3c, 0x70, 0x71, 0xe2, 0xbc, 0x9a, 0x92, 0xa3, 0xbc,
  0x3b, 0x04, 0x6b, 0x3d, 0xf3, 0x27, 0x40, 0x3d, 0x8b, 0x12, 0x4b, 0x3e,
  0xc1, 0xb0, 0x5f, 0xbb, 0x79, 0x7c, 0x02, 0x3d, 0x09, 0xc2, 0x4d, 0xbe,
  0x94, 0xb4, 0x7f, 0xbc, 0xc4, 0x24, 0x8c, 0xbd, 0xe4, 0x0f, 0xd7, 0xbd,
  0x19, 0xcc, 0xbc, 0x3c, 0x86, 0xb7, 0x45, 0x3c, 0x23, 0x76, 0x85, 0xbc,
  0xb1, 0x8c, 0xe2, 0xbc, 0x2a, 0x2e, 0x00, 0x3d, 0x85, 0x9a, 0x32, 0xbd,
  0xf1, 0x3d, 0x1e, 0x3d, 0x6a, 0x58, 0xb0, 0x3d, 0xf1, 0x9a, 0x39, 0x3d,
  0xb0, 0xbb, 0x09, 0x3e, 0x6a, 0x7d, 0xb4, 0xbd, 0xf0, 0x58, 0x9b, 0x3d,
  0xc8, 0xef, 0x5f, 0xbe, 0x95, 0x36, 0x21, 0x3d, 0x99, 0xb8, 0x11, 0x3d,
  0x88, 0x1e, 0x94, 0xbb, 0x85, 0x36, 0x70, 0x3d, 0x0b, 0x60, 0x57, 0x3c,
  0x95, 0xf9, 0x9e, 0xbc, 0x45, 0x2d, 0x78, 0xbd, 0x30, 0x64, 0x6f, 0xbd,
  0x0e, 0x61, 0xbf, 0xbb, 0xfb, 0x02, 0x43, 0x3d, 0xea, 0xd1, 0x80, 0x3d,
  0xc9, 0x94, 0x81, 0x3d, 0x6b, 0xa2, 0xec, 0x3d, 0x16, 0x7b, 0xbc, 0xbd,
  0xcf, 0x2b, 0xdb, 0x3d, 0x3b, 0x7f, 0x35, 0xbd, 0xde, 0xe0, 0x62, 0xbd,
  0x51, 0xba, 0xe4, 0xbc, 0xc4, 0x32, 0x88, 0xbd, 0xa2, 0x29, 0x0b, 0xbd,
  0x77, 0x06, 0x48, 0x3d, 0x9f, 0x8b, 0x49, 0xbd, 0xd6, 0xe3, 0x1c, 0x3d,
  0xb3, 0xa8, 0xa5, 0x3d, 0x1a, 0x80, 0x88, 0xbb, 0xa9, 0xa7, 0x10, 0x3d,
  0x3c, 0x34, 0x2b, 0xbc, 0x62, 0x12, 0x80, 0x3c, 0x67, 0xfd, 0xd8, 0x3d,
  0x31, 0xe0, 0x5c, 0xbd, 0xae, 0x48, 0xd0, 0x3d, 0x47, 0x39, 0x16, 0xbe,
  0xa4, 0xab, 0xae, 0x3c, 0xff, 0x99, 0x45, 0xbd, 0xce, 0x67, 0xd2, 0xbd,
  0xfe, 0x43, 0xdc, 0xbc, 0x5e, 0x9a, 0x9d, 0xbd, 0x52, 0xfc, 0x44, 0x3d,
  0x26, 0x9a, 0xb7, 0x3c, 0x85, 0xf0, 0xdc, 0x3b, 0x74, 0x53, 0xa0, 0x3d,
  0xbb, 0x11, 0xfa, 0xbc, 0x19, 0x25, 0xa5, 0x3c, 0x98, 0x67, 0xa9, 0x3d,
  0xd5, 0xe3, 0x3c, 0x3e, 0x30, 0xcf, 0x9a, 0xbb, 0xae, 0x01, 0xb9, 0x3c,
  0x14, 0x22, 0xbf, 0xbc, 0x7e, 0x54, 0x59, 0x3d, 0xf7, 0x39, 0x69, 0xbd,
  0x24, 0xb8, 0x5b, 0xbd, 0x48, 0x0e, 0xd4, 0xbc, 0x37, 0xf5, 0x45, 0xbd,
  0xa5, 0xc9, 0xae, 0xbc, 0x42, 0x35, 0x87, 0xbd, 0xa8, 0xe3, 0x50, 0x3d,
  0xc2, 0x67, 0xd9, 0x3d, 0x9f, 0xec, 0x83, 0xbd, 0x1f, 0x1e, 0x41, 0x3d,
  0xea, 0x45, 0x99, 0x3d, 0x3b, 0x3d, 0xb0, 0x3d, 0xb1, 0x70, 0x12, 0xbd,
  0x54, 0x1a, 0x0a, 0x3d, 0x49, 0xd3, 0x35, 0xbe, 0xa0, 0xfb, 0xb9, 0xbc,
  0x56, 0x39, 0xd8, 0xbc, 0xa0, 0xf0, 0x9f, 0xbd, 0x3e, 0xaf, 0x0c, 0xbe,
  0xb8, 0x1c, 0x1c, 0xbd, 0xa1, 0xb9, 0x8c, 0xbd, 0xb0, 0x53, 0x10, 0xbd,
  0x92, 0x47, 0x90, 0xbd, 0xa5, 0x7f, 0x90, 0xbc, 0xb9, 0xb3, 0x82, 0x3d,
  0x6e, 0xc6, 0xc5, 0x3c, 0x4e, 0x5d, 0xef, 0xbb, 0xe6, 0xdc, 0x39, 0x3e,
  0x6d, 0x57, 0x9b, 0xbd, 0x40, 0xa9, 0x5d, 0x3d, 0x41, 0xf7, 0x2f, 0xbe,
  0xf0, 0xe1, 0x6a, 0x3d, 0x27, 0x15, 0x04, 0x3d, 0xf3, 0xa5, 0x7b, 0xbd,
  0xaa, 0x33, 0x10, 0xbe, 0x7e, 0x22, 0xea, 0x3c, 0x85, 0x0d, 0x54, 0xbd,
  0x6b, 0x0c, 0x6e, 0x3d, 0x51, 0xdd, 0xdb, 0xbc, 0xa7, 0x12, 0xb7, 0x3c,
  0xe1, 0x23, 0x19, 0x3b, 0x90, 0xfa, 0x76, 0x3d, 0x74, 0xa0, 0xec, 0x3c,
  0x85, 0x70, 0xc2, 0x3d, 0x91, 0x95, 0x82, 0xbd, 0xb5, 0x2d, 0x42, 0x3d,
  0x8e, 0x45, 0x32, 0xbe, 0x24, 0x38, 0x1d, 0x3c, 0x66, 0x63, 0xf8, 0xbc,
  0x8a, 0xe8, 0xf3, 0xbb, 0xdc, 0x98, 0xeb, 0xbd, 0xa7, 0x29, 0xb0, 0xbc,
  0x1f, 0xdc, 0x39, 0xbd, 0xa4, 0x4d, 0x58, 0x3d, 0x38, 0xa9, 0x1f, 0x3d,
  0x52, 0x04, 0x94, 0x3d, 0xc7, 0x28, 0x84, 0xbc, 0x24, 0xf2, 0xdd, 0xbc,
  0x2c, 0x29, 0xe9, 0x3d, 0x27, 0x90, 0xfa, 0x3d, 0xd7, 0x16, 0xdb, 0xbc,
  0xc1, 0x3f, 0x0c, 0x3e, 0x45, 0x7a, 0x22, 0xbe, 0xa6, 0xfe, 0x48, 0x3d,
  0x24, 0x76, 0x5c, 0x3c, 0x34, 0x19, 0xa7, 0xbb, 0x36, 0x2f, 0xdd, 0x3c,
  0xbc, 0x4a, 0x78, 0x3d, 0x5f, 0x8e, 0x57, 0x3d, 0x85, 0x87, 0x3a, 0x3c,
  0x35, 0xbb, 0x48, 0x3c, 0x8c, 0x0f, 0x8d, 0x3d, 0xae, 0xb2, 0x10, 0x3d,
  0x03, 0x1c, 0x8b, 0x3d, 0x4b, 0xac, 0x6f, 0x3c, 0x48, 0x10, 0x09, 0x3e,
  0x6f, 0x65, 0x0d, 0x3c, 0xbf, 0xbe, 0x43, 0x3d, 0x27, 0x51, 0xc9, 0xbd,
  0xdf, 0x5e, 0x82, 0x3b, 0x09, 0xd7, 0x3b, 0xbd, 0xa9, 0x88, 0xde, 0xbd,
  0x52, 0x2f, 0x03, 0x3d, 0x4e, 0xe8, 0xa4, 0x3c, 0xd6, 0xf5, 0x96, 0x3d,
  0x52, 0xc1, 0x81, 0xbd, 0x39, 0xa4, 0x67, 0xbd, 0xc3, 0xa2, 0x41, 0xbc,
  0x68, 0xbb, 0x97, 0x3d, 0xbd, 0x20, 0xe5, 0x3c, 0xed, 0x07, 0xc5, 0x3d,
  0x70, 0xea, 0x17, 0x3e, 0x43, 0x47, 0xc3, 0x3c, 0x7f, 0x8a, 0x8e, 0x3c,
  0x1d, 0xcb, 0xca, 0xbb, 0x19, 0x8d, 0x5e, 0x3d, 0x4e, 0xef, 0x1d, 0xbc,
  0xdb, 0xa5, 0x81, 0xbc, 0x55, 0xc9, 0xe8, 0x3c, 0xb4, 0x7b, 0x94, 0x3d,
  0x99, 0xcb, 0x32, 0x3d, 0x04, 0x87, 0x7d, 0x3d, 0xdf, 0x5a, 0x99, 0x3d,
  0xa7, 0x01, 0x08, 0x3d, 0xe4, 0x55, 0x82, 0x3d, 0x68, 0xc6, 0xf8, 0x3c,
  0x92, 0xd4, 0x17, 0xba, 0x9d, 0xbc, 0x3e, 0x3e, 0xc9, 0x32, 0x68, 0xbd,
  0xa6, 0x8c, 0xcb, 0x3d, 0xa1, 0x41, 0x7f, 0xbd, 0x65, 0x46, 0xfa, 0xbc,
  0x6d, 0x9e, 0x86, 0x39, 0xfb, 0xcb, 0x89, 0xbd, 0x5b, 0xa0, 0x0c, 0x3c,
  0xee, 0x3e, 0x68, 0x3d, 0x42, 0x9a, 0x45, 0x3d, 0x12, 0xa7, 0x72, 0xbb,
  0xe8, 0x72, 0x82, 0x3d, 0x98, 0xd5, 0x90, 0x3d, 0x82, 0x2b, 0x74, 0x3d,
  0x4b, 0x72, 0x5e, 0x3d, 0x1d, 0x35, 0xbb, 0x3b, 0x15, 0xc6, 0x84, 0x3d,
  0x57, 0x9f, 0x8c, 0xbd, 0x4f, 0x2a, 0x63, 0x3d, 0x4d, 0x72, 0xe4, 0xbc,
  0xbb, 0x6f, 0x0b, 0xbd, 0xb2, 0x27, 0x36, 0xbd, 0x7b, 0xb3, 0x88, 0x3c,
  0xcd, 0x18, 0xfe, 0x3c, 0x0d, 0xfd, 0x37, 0x3d, 0x99, 0x6c, 0x31, 0xbb,
  0xa3, 0xd6, 0xd9, 0x3b, 0x7c, 0x83, 0xda, 0xbc, 0xb7, 0x58, 0x83, 0xbc,
  0xeb, 0x0f, 0x4f, 0xbc, 0xc4, 0x47, 0x0e, 0x3d, 0xae, 0x1d, 0x50, 0x3d,
  0xa8, 0x62, 0x8f, 0x3d, 0xaa, 0x2f, 0x2d, 0x3d, 0xd0, 0xc6, 0x95, 0x3d,
  0xc8, 0xf5, 0x82, 0xbd, 0x74, 0x59, 0x77, 0x3d, 0x80, 0x36, 0x60, 0x3d,
  0xea, 0x26, 0x17, 0xbb, 0xc4, 0xe1, 0x7c, 0xbd, 0x69, 0x28, 0x21, 0xbd,
  0x0e, 0xee, 0xf6, 0xbc, 0x4d, 0x44, 0x09, 0x3d, 0xec, 0x8e, 0xce, 0xbc,
  0x22, 0xde, 0xf7, 0x3d, 0xf3, 0xca, 0xe8, 0x3c, 0xd0, 0xf8, 0xf5, 0xbc,
  0xc2, 0xa4, 0xd7, 0x3d, 0xe3, 0xa5, 0x39, 0x3e, 0xb1, 0x45, 0xe2, 0xbc,
  0x62, 0x5c, 0xfe, 0x3d, 0x51, 0x25, 0x9d, 0xbc, 0xd2, 0x92, 0x8a, 0xbd,
  0xac, 0x8b, 0x76, 0xbd, 0xbc, 0x73, 0x59, 0xbc, 0x8d, 0x54, 0x1d, 0xbe,
  0xa8, 0xf9, 0xc7, 0xbd, 0xea, 0xae, 0x0f, 0x3d, 0xae, 0x07, 0xc2, 0x3c,
  0x0c, 0x32, 0x30, 0x3d, 0x5a, 0x30, 0x92, 0x3d, 0x4a, 0x16, 0x4a, 0x3d,
  0xaa, 0x70, 0x98, 0x3d, 0x7c, 0xc4, 0x21, 0x3d, 0x41, 0xf2, 0xf4, 0x3d,
  0x6d, 0x40, 0x66, 0xbd, 0x86, 0x94, 0xa9, 0x3d, 0xa0, 0x7e, 0x56, 0xbd,
  0x7f, 0xb2, 0xc5, 0x3c, 0x64, 0x31, 0x27, 0xbd, 0x31, 0x1d, 0xb2, 0x3c,
  0x48, 0xa9, 0x0b, 0xbe, 0x0f, 0xf5, 0xa2, 0xbd, 0xc0, 0xdd, 0x85, 0xbd,
  0x2a, 0xd4, 0x82, 0xbd, 0xde, 0xfc, 0xa2, 0xbc, 0xe5, 0x80, 0xf3, 0x3d,
  0xff, 0xd0, 0x71, 0x3d, 0xe1, 0x58, 0x5e, 0x3d, 0x3b, 0x91, 0xc9, 0x3d,
  0x94, 0xc7, 0xb6, 0x3d, 0x47, 0xdc, 0x88, 0x3c, 0x82, 0x00, 0xd7, 0x3d,
  0xa1, 0xdd, 0xdc, 0xbd, 0x0f, 0x60, 0xc4, 0x3a, 0x68, 0x95, 0x97, 0x3c,
  0x94, 0xf1, 0x6a, 0xbc, 0x9d, 0xc3, 0xbf, 0x3d, 0xa8, 0x9a, 0x3e, 0x3c,
  0x1d, 0xe0, 0x50, 0x3c, 0x22, 0xa1, 0xc7, 0xbc, 0xb7, 0x15, 0x04, 0x3d,
  0x72, 0xf5, 0x32, 0xbd, 0x60, 0x3a, 0x44, 0xbd, 0x5d, 0x38, 0xc4, 0xbc,
  0x7e, 0x0b, 0x8f, 0x3d, 0xac, 0x7c, 0x1c, 0x3e, 0xcc, 0xf6, 0x84, 0xbb,
  0x70, 0x7b, 0x5d, 0x3c, 0x99, 0x0e, 0x10, 0xbe, 0xd0, 0x40, 0x6a, 0x3d,
  0x29, 0x8d, 0xcb, 0xbc, 0x39, 0x56, 0x6e, 0x3c, 0xc2, 0x1e, 0x8a, 0x3d,
  0xb5, 0xe3, 0x46, 0xbc, 0xb5, 0xf5, 0xfd, 0xbc, 0xd4, 0x4a, 0x72, 0xbd,
  0xa4, 0x62, 0xa2, 0xbc, 0x12, 0x41, 0xfb, 0x3a, 0xca, 0xf4, 0x10, 0xbc,
  0xa7, 0xc8, 0x07, 0xbd, 0x4a, 0x45, 0x74, 0x3c, 0x29, 0x87, 0x3a, 0x3e,
  0x84, 0xd6, 0x4f, 0xbc, 0x8b, 0xb4, 0xe6, 0x3d, 0x6f, 0x1f, 0xcf, 0xbd,
  0x80, 0x3d, 0x44, 0xbd, 0x79, 0xac, 0x98, 0xbd, 0x06, 0x02, 0xa1, 0xbd,
  0xe6, 0x87, 0xd1, 0x3d, 0x25, 0xb2, 0x89, 0x3d, 0xe1, 0xa4, 0x44, 0xbc,
  0x93, 0x23, 0xc3, 0x3b, 0x05, 0x70, 0x23, 0x3d, 0xd9, 0x04, 0x75, 0x3d,
  0x8b, 0x1d, 0x72, 0x3c, 0xe2, 0xa2, 0x87, 0x3c, 0x33, 0xed, 0xef, 0x3d,
  0x25, 0x2d, 0x3d, 0x3e, 0xbc, 0xd4, 0x27, 0xbc, 0x18, 0x71, 0x0d, 0x3d,
  0xe7, 0x36, 0xb9, 0xbd, 0x84, 0x7f, 0x81, 0x3d, 0xd0, 0xf0, 0x54, 0xbd,
  0x19, 0x9a, 0x55, 0xbd, 0x63, 0xe8, 0x7d, 0x3d, 0xd9, 0x19, 0xdb, 0x3c,
  0x2e, 0x61, 0x12, 0xbb, 0x06, 0x40, 0x8c, 0xbd, 0x2d, 0x5c, 0x84, 0xbd,
  0x9e, 0xfe, 0x85, 0x3d, 0x07, 0x31, 0xa4, 0xbc, 0xe5, 0xf8, 0x13, 0xbd,
  0x30, 0x6c, 0x8e, 0x3d, 0xc5, 0x86, 0x0b, 0x3e, 0x4f, 0x49, 0xa6, 0x3c,
  0x09, 0xff, 0x04, 0x3e, 0x99, 0x8e, 0x7b, 0xbd, 0x02, 0x90, 0x2f, 0xbd,
  0x85, 0x51, 0x09, 0xbd, 0x4f, 0x10, 0xb6, 0xbd, 0x1e, 0x76, 0x48, 0xbc,
  0x1a, 0xa9, 0xb2, 0xbd, 0xde, 0x76, 0xe6, 0xbc, 0x02, 0xff, 0x5c, 0x3c,
  0x2e, 0xe7, 0x85, 0x3c, 0x23, 0x42, 0xb1, 0xbc, 0xc0, 0xe2, 0x03, 0x3d,
  0x24, 0xd8, 0x87, 0x3d, 0x67, 0x7a, 0x2d, 0xbc, 0x36, 0xb1, 0xc6, 0x3d,
  0xc1, 0xad, 0xc2, 0xbc, 0xa4, 0x2a, 0x01, 0x3e, 0x4a, 0xca, 0xf9, 0xbd,
  0x19, 0x76, 0x09, 0xbd, 0x3c, 0x10, 0x33, 0x3d, 0x3b, 0x88, 0xee, 0xbd,
  0x89, 0xe0, 0x0a, 0xbd, 0xb9, 0xf3, 0xa0, 0xbd, 0x38, 0xc3, 0x84, 0x3d,
  0x04, 0x32, 0x92, 0x3b, 0xe4, 0x9e, 0xed, 0x3c, 0x23, 0x8c, 0x81, 0x3c,
  0x4e, 0x3a, 0x08, 0x3c, 0x91, 0xef, 0x2c, 0x3c, 0xa8, 0x80, 0xd2, 0x3d,
  0x5b, 0x61, 0xc2, 0x3d, 0xc6, 0x2a, 0x5d, 0xbd, 0x71, 0x13, 0x1e, 0x3e,
  0x9f, 0x5e, 0x81, 0xbd, 0x28, 0xc1, 0x5f, 0xbd, 0x30, 0x68, 0x74, 0xbd,
  0x28, 0x5a, 0x62, 0xbd, 0x92, 0x12, 0x0a, 0xbe, 0xb9, 0xd2, 0xb5, 0xbd,
  0xcd, 0x0d, 0x35, 0x3d, 0x6e, 0xb1, 0x47, 0x3d, 0x30, 0x02, 0x8c, 0x3c,
  0xa0, 0x2f, 0xc9, 0xbc, 0x9c, 0x64, 0x05, 0xbd, 0xa5, 0x63, 0x3d, 0xbd,
  0x4a, 0x62, 0xde, 0x3d, 0x58, 0x33, 0x8b, 0x3d, 0xcf, 0x84, 0x6e, 0xbd,
  0x09, 0x95, 0x3f, 0x3d, 0x7c, 0xde, 0x1e, 0xbe, 0x36, 0x51, 0xca, 0x3c,
  0xa4, 0x1f, 0x0d, 0x3d, 0xe8, 0x80, 0x69, 0xbd, 0x01, 0xfc, 0x5c, 0xbe,
  0x00, 0xf0, 0x4e, 0xbb, 0x39, 0xc6, 0x06, 0x3d, 0x76, 0x69, 0x84, 0xbc,
  0x5e, 0xbe, 0x3c, 0x3c, 0x80, 0x6d, 0xbd, 0x3c, 0xea, 0xce, 0x1e, 0xbd,
  0x11, 0xad, 0xea, 0xbc, 0xd0, 0xbb, 0xc3, 0x3d, 0x8d, 0x24, 0x3e, 0x3e,
  0x84, 0xdf, 0x67, 0xb7, 0x81, 0xf6, 0x86, 0xbc, 0xa3, 0x27, 0x41, 0xbe,
  0x03, 0xa6, 0x0c, 0x3c, 0xef, 0x00, 0x33, 0xbd, 0x47, 0x7c, 0xf0, 0xbd,
  0x71, 0xc7, 0x39, 0x3d, 0x7a, 0x6f, 0x35, 0x3d, 0x47, 0x3d, 0xb0, 0x3c,
  0x29, 0x26, 0x94, 0x3d, 0x18, 0x71, 0x67, 0xbd, 0x92, 0x91, 0x69, 0x3c,
  0xa7, 0x10, 0x6b, 0x3d, 0xd8, 0x05, 0xb9, 0x3c, 0x8d, 0xb3, 0x0a, 0x3e,
  0x3a, 0x41, 0x52, 0x3e, 0x08, 0xf3, 0xea, 0xbb, 0x84, 0x83, 0x99, 0x3c,
  0x36, 0x67, 0x25, 0xbe, 0x6c, 0xd3, 0x83, 0xbd, 0x3c, 0x38, 0x5c, 0xbd,
  0xfd, 0xcb, 0x98, 0xbd, 0x4a, 0x83, 0x1c, 0x3c, 0xd1, 0x10, 0x25, 0x3d,
  0x0a, 0xef, 0xa1, 0x3d, 0x8b, 0xed, 0x82, 0x3d, 0x2b, 0x46, 0x1d, 0xbd,
  0x35, 0x62, 0xa1, 0x3b, 0xc0, 0x04, 0xe2, 0x3c, 0x0f, 0xcd, 0x46, 0x3d,
  0xc6, 0x82, 0xb3, 0x3c, 0x01, 0x86, 0x42, 0x3e, 0xfd, 0x85, 0xa7, 0xbd,
  0x6a, 0xb1, 0x8a, 0xbb, 0x1f, 0xc9, 0x31, 0xbe, 0x62, 0x7d, 0x8e, 0xba,
  0xd6, 0x42, 0x03, 0x3d, 0x81, 0xac, 0xbe, 0xbb, 0x0a, 0x11, 0x98, 0x39,
  0xa4, 0x58, 0x57, 0xbd, 0x20, 0xc2, 0xe9, 0x3b, 0x3e, 0x59, 0x13, 0x3b,
  0xe1, 0x34, 0x3f, 0xbd, 0x48, 0xc4, 0xbe, 0xbb, 0x34, 0x36, 0x96, 0xbd,
  0x4a, 0x9d, 0x8b, 0xba, 0x9b, 0x29, 0x82, 0x39, 0xbb, 0x38, 0x03, 0x3e,
  0x5d, 0x8d, 0x10, 0x3d, 0x95, 0xc1, 0xb2, 0x3d, 0x89, 0x98, 0x41, 0xbe,
  0x90, 0x25, 0xe3, 0x3c, 0x3b, 0x56, 0x60, 0xbd, 0x47, 0x21, 0x8c, 0xbd,
  0xe3, 0x6c, 0x91, 0xbc, 0xf5, 0x45, 0x9a, 0xbd, 0xa4, 0xd5, 0xa7, 0x3d,
  0xfb, 0xe6, 0x89, 0x3c, 0x67, 0xbc, 0x77, 0xba, 0xff, 0xfa, 0xa2, 0x3d,
  0xf6, 0x27, 0x67, 0x3d, 0x40, 0xa6, 0x68, 0x3c, 0x06, 0x5f, 0xaf, 0x3d,
  0xe7, 0x34, 0x4d, 0x3e, 0x71, 0x20, 0xb0, 0xbd, 0xb0, 0xef, 0xd2, 0xbc,
  0xe8, 0x62, 0x06, 0xbe, 0xd4, 0x91, 0x7e, 0x3d, 0x5c, 0x96, 0x0e, 0xbc,
  0x48, 0x36, 0x10, 0xbd, 0xb9, 0xba, 0x0a, 0xbd, 0x36, 0x8a, 0x78, 0xbd,
  0x1a, 0xbf, 0x8d, 0x3d, 0x7b, 0x68, 0x47, 0xbd, 0x48, 0xd2, 0x74, 0xbd,
  0xe8, 0xd5, 0xc6, 0x3c, 0x2c, 0x5b, 0x8c, 0x3b, 0x70, 0x1f, 0xf9, 0xbc,
  0xba, 0x8f, 0xe7, 0x3d, 0xac, 0xc6, 0x4e, 0x3e, 0x4c, 0x88, 0x8c, 0xbd,
  0x33, 0xce, 0x5c, 0x3d, 0x5e, 0x78, 0x15, 0xbe, 0x29, 0x2c, 0xc9, 0x3c,
  0x4f, 0x79, 0xc4, 0xbc, 0xdc, 0x2a, 0x51, 0xbd, 0x95, 0xb6, 0x2b, 0xbd,
  0x40, 0x9a, 0xeb, 0x3b, 0x86, 0x4b, 0x29, 0xbc, 0x36, 0x41, 0x4e, 0x3b,
  0xce, 0xe2, 0xf0, 0xbc, 0x94, 0x3f, 0xa5, 0x3d, 0x5f, 0x35, 0x8f, 0xbd,
  0x99, 0x9d, 0x97, 0x3b, 0xf0, 0x86, 0x80, 0x3d, 0x0a, 0x9c, 0x57, 0x3e,
  0xa3, 0xc4, 0x54, 0x3d, 0xcd, 0x24, 0xbc, 0x3d, 0x8b, 0xe3, 0x4d, 0xbe,
  0xf3, 0x95, 0x94, 0xbd, 0x2b, 0x1e, 0x99, 0xbd, 0x04, 0x33, 0x08, 0xbe,
  0x76, 0x92, 0x6b, 0xbe, 0x39, 0xf8, 0xea, 0x38, 0x34, 0xe2, 0xca, 0x3c,
  0x0b, 0x90, 0xaf, 0xbb, 0x86, 0xba, 0x26, 0x3d, 0x5d, 0x95, 0xcd, 0x3d,
  0x31, 0x14, 0x3a, 0x3d, 0x74, 0x13, 0x9e, 0x3c, 0x7d, 0xb8, 0x65, 0x3d,
  0xa2, 0xe5, 0x30, 0x3e, 0x16, 0x0b, 0x83, 0xbd, 0x5c, 0x03, 0xee, 0x3d,
  0x28, 0xb9, 0xb3, 0xbd, 0x01, 0x35, 0x3b, 0xbd, 0xc4, 0xa9, 0x8f, 0xbd,
  0xec, 0x24, 0x97, 0xbd, 0x76, 0x24, 0x0f, 0xbe, 0x06, 0x38, 0xee, 0x3c,
  0xca, 0x89, 0x98, 0xbc, 0x3e, 0x0b, 0x3c, 0x3d, 0xf9, 0x4d, 0x92, 0xbd,
  0x4b, 0x03, 0x23, 0x3d, 0xa2, 0xd5, 0x03, 0xbd, 0x2c, 0x26, 0x91, 0x3d,
  0x8a, 0xfb, 0xff, 0xff, 0x3c, 0x00, 0x00, 0x00, 0x08, 0x00, 0x00, 0x00,
  0x08, 0x00, 0x00, 0x00, 0x44, 0x00, 0x00, 0x00, 0x25, 0x00, 0x00, 0x00,
  0x73, 0x65, 0x71, 0x75, 0x65, 0x6e, 0x74, 0x69, 0x61, 0x6c, 0x2f, 0x64,
  0x65, 0x70, 0x74, 0x68, 0x77, 0x69, 0x73, 0x65, 0x5f, 0x63, 0x6f, 0x6e,
  0x76, 0x32, 0x64, 0x2f, 0x64, 0x65, 0x70, 0x74, 0x68, 0x77, 0x69, 0x73,
  0x65, 0x00, 0x00, 0x00, 0x04, 0x00, 0x00, 0x00, 0x01, 0x00, 0x00, 0x00,
  0x08, 0x00, 0x00, 0x00, 0x08, 0x00, 0x00, 0x00, 0x10, 0x00, 0x00, 0x00,
  0x8c, 0xfa, 0xff, 0xff, 0x6e, 0xfb, 0xff, 0xff, 0x04, 0x00, 0x00, 0x00,
  0x00, 0x02, 0x00, 0x00, 0x67, 0x7a, 0x0f, 0x3e, 0xb1, 0xa1, 0x5d, 0x3e,
  0x64, 0x8f, 0x81, 0xbb, 0x4c, 0x94, 0x34, 0xbd, 0x6c, 0x0f, 0x97, 0xbc,
  0xcd, 0x8a, 0xb9, 0x3d, 0x97, 0xc8, 0x3e, 0xbe, 0x7d, 0xfe, 0xf7, 0xbb,
  0xc2, 0xf7, 0x90, 0x3e, 0x73, 0x84, 0x83, 0xbe, 0x9d, 0x9b, 0x70, 0xbe,
  0xf9, 0x6e, 0xa4, 0x3e, 0x1a, 0x17, 0x19, 0x3e, 0x1f, 0xef, 0xac, 0xbe,
  0x65, 0xa8, 0x7d, 0xbe, 0xe0, 0x0a, 0x9d, 0xbe, 0xa2, 0x00, 0x9a, 0xbd,
  0x42, 0x5b, 0x25, 0xbe, 0x1c, 0x60, 0x67, 0xbe, 0x81, 0xe0, 0xeb, 0x3d,
  0x3b, 0xc7, 0x89, 0x3e, 0x7c, 0xb9, 0x04, 0x3d, 0xb0, 0x35, 0x59, 0xbe,
  0xa2, 0x78, 0x94, 0x3d, 0xf4, 0x86, 0x97, 0x3c, 0x08, 0xd1, 0xcf, 0xbe,
  0xac, 0x29, 0x55, 0xbe, 0xd5, 0x45, 0x2c, 0xbe, 0xe6, 0x31, 0xfc, 0x3d,
  0xa4, 0x12, 0x82, 0xbe, 0xd7, 0x9f, 0xad, 0x3d, 0xfe, 0x92, 0x4a, 0x3e,
  0x64, 0x45, 0xfd, 0xbd, 0xa8, 0x35, 0xf1, 0xbd, 0x12, 0x21, 0x26, 0xbe,
  0x18, 0x1c, 0xc3, 0xbe, 0x05, 0xd1, 0xb1, 0xbc, 0x60, 0x77, 0xc7, 0xbe,
  0x2f, 0xd9, 0x90, 0xbd, 0xee, 0xf2, 0xe7, 0xbd, 0xdb, 0x8d, 0x96, 0x3e,
  0x10, 0x87, 0x6d, 0xbe, 0x78, 0xb9, 0x81, 0xbd, 0x82, 0x0c, 0xd1, 0x3d,
  0xe2, 0x65, 0xc8, 0xbd, 0x54, 0x5f, 0x99, 0xbe, 0x56, 0x5b, 0x08, 0x3e,
  0x12, 0x3e, 0x04, 0xbd, 0xb5, 0x37, 0x51, 0x3c, 0xbf, 0xea, 0x46, 0x3e,
  0x3f, 0x67, 0x00, 0xbe, 0xb7, 0x76, 0x1a, 0x3d, 0xa4, 0x5d, 0xdd, 0xbd,
  0xeb, 0x68, 0xc8, 0x3c, 0x1b, 0xcb, 0x22, 0x3e, 0xcc, 0xbb, 0x9e, 0x3d,
  0x65, 0x2f, 0x8b, 0x3e, 0x5a, 0x75, 0x76, 0xbd, 0x69, 0x90, 0x6f, 0x3e,
  0x2a, 0x9e, 0x58, 0xbe, 0x33, 0x6d, 0x10, 0xbe, 0x11, 0xd9, 0x42, 0x3c,
  0x5b, 0xe0, 0xb4, 0xbd, 0x0e, 0xea, 0x53, 0x3d, 0x76, 0xd3, 0x48, 0xbe,
  0x9a, 0x93, 0xc8, 0xbd, 0x78, 0xb9, 0x33, 0xbe, 0xe3, 0x34, 0x66, 0x3e,
  0xe9, 0x1d, 0xf1, 0xbd, 0x90, 0xe4, 0x84, 0x3e, 0x31, 0x38, 0x95, 0xbe,
  0x80, 0xde, 0x9e, 0xbd, 0x7e, 0x14, 0x36, 0xbe, 0xb0, 0xe3, 0xd7, 0x3d,
  0xd0, 0xee, 0x49, 0xbe, 0x1e, 0x50, 0x25, 0x3d, 0x2a, 0x82, 0x87, 0xbe,
  0x8c, 0x5c, 0xce, 0x3d, 0x62, 0xb6, 0x1c, 0x3e, 0x26, 0x6a, 0x28, 0xbe,
  0x9c, 0x1f, 0x4d, 0xbd, 0xa9, 0x64, 0x1b, 0x3e, 0xe7, 0x37, 0x36, 0xbe,
  0x15, 0x25, 0xc7, 0xbd, 0x73, 0x99, 0x9a, 0x3e, 0x08, 0x82, 0x72, 0x3c,
  0x55, 0x13, 0xfe, 0x3d, 0x5a, 0x55, 0xc9, 0xbc, 0xa3, 0x94, 0xb2, 0x3d,
  0x95, 0x22, 0xe3, 0xbd, 0x00, 0x20, 0x9a, 0x3e, 0x8e, 0xca, 0x75, 0x3e,
  0x4d, 0xc9, 0xb7, 0xbd, 0xb3, 0x5b, 0xb5, 0x3d, 0xc2, 0xf4, 0x3e, 0xbc,
  0x7a, 0xbe, 0x60, 0xbd, 0xe8, 0xdb, 0x77, 0xbe, 0xa2, 0xb1, 0x89, 0x3e,
  0xd5, 0xfc, 0x32, 0x3d, 0xb5, 0xbc, 0x66, 0x3d, 0xb4, 0x00, 0x56, 0x3e,
  0xee, 0x7c, 0xd7, 0x3e, 0x95, 0x83, 0x6e, 0x3e, 0xdc, 0x1e, 0xab, 0x3e,
  0xde, 0xed, 0xf4, 0xbd, 0xf4, 0x27, 0xd1, 0x3e, 0x68, 0x32, 0xfe, 0x3c,
  0xe9, 0x3c, 0xa1, 0x3e, 0x2a, 0x96, 0xd3, 0xbd, 0x0e, 0x8e, 0xf1, 0xbc,
  0x5f, 0x0b, 0xc1, 0xbc, 0x0c, 0x43, 0x00, 0x3e, 0x26, 0xe3, 0x19, 0xbc,
  0xba, 0xce, 0xc3, 0xbd, 0xaa, 0x77, 0x04, 0xbe, 0x57, 0x17, 0x6a, 0x3e,
  0x9c, 0x6a, 0x77, 0xbe, 0x9b, 0xd5, 0xeb, 0x3d, 0x61, 0x34, 0x2d, 0xbe,
  0x49, 0x6d, 0x00, 0xbd, 0xda, 0x88, 0xa0, 0xbe, 0x2c, 0x48, 0x11, 0x3d,
  0x47, 0x5a, 0x83, 0xbe, 0x87, 0x46, 0xac, 0x3e, 0x9a, 0x89, 0x68, 0x3e,
  0x93, 0xb5, 0x43, 0x3d, 0x9c, 0x7c, 0xa3, 0xbe, 0x33, 0x25, 0xaa, 0x3e,
  0xee, 0xfd, 0xff, 0xff, 0x2c, 0x00, 0x00, 0x00, 0x07, 0x00, 0x00, 0x00,
  0x08, 0x00, 0x00, 0x00, 0x2c, 0x00, 0x00, 0x00, 0x17, 0x00, 0x00, 0x00,
  0x73, 0x65, 0x71, 0x75, 0x65, 0x6e, 0x74, 0x69, 0x61, 0x6c, 0x2f, 0x64,
  0x65, 0x6e, 0x73, 0x65, 0x2f, 0x4d, 0x61, 0x74, 0x4d, 0x75, 0x6c, 0x00,
  0x02, 0x00, 0x00, 0x00, 0x02, 0x00, 0x00, 0x00, 0x40, 0x00, 0x00, 0x00,
  0xd8, 0xfc, 0xff, 0xff, 0xba, 0xfd, 0xff, 0xff, 0x04, 0x00, 0x00, 0x00,
  0x40, 0x00, 0x00, 0x00, 0x0d, 0xcf, 0x0f, 0xbd, 0x69, 0x42, 0x6f, 0x3d,
  0x85, 0x75, 0x19, 0xbd, 0x72, 0x99, 0x0d, 0x3d, 0x1a, 0x9e, 0xbb, 0x3d,
  0x1e, 0x76, 0xa9, 0x3c, 0xa4, 0xf9, 0xe2, 0x3b, 0x06, 0x52, 0xf8, 0xb9,
  0x99, 0xda, 0x44, 0xbe, 0x1f, 0x40, 0x37, 0xbc, 0x8e, 0x45, 0xcb, 0xbd,
  0x7a, 0x9a, 0x10, 0xbc, 0x20, 0x67, 0x82, 0x3a, 0x03, 0x2f, 0x30, 0x3b,
  0x98, 0x40, 0x0b, 0xbc, 0x28, 0xd1, 0xf2, 0xbc, 0x7a, 0xfe, 0xff, 0xff,
  0x48, 0x00, 0x00, 0x00, 0x06, 0x00, 0x00, 0x00, 0x08, 0x00, 0x00, 0x00,
  0x44, 0x00, 0x00, 0x00, 0x33, 0x00, 0x00, 0x00, 0x73, 0x65, 0x71, 0x75,
  0x65, 0x6e, 0x74, 0x69, 0x61, 0x6c, 0x2f, 0x63, 0x6f, 0x6e, 0x76, 0x32,
  0x64, 0x5f, 0x31, 0x2f, 0x42, 0x69, 0x61, 0x73, 0x41, 0x64, 0x64, 0x2f,
  0x52, 0x65, 0x61, 0x64, 0x56, 0x61, 0x72, 0x69, 0x61, 0x62, 0x6c, 0x65,
  0x4f, 0x70, 0x2f, 0x72, 0x65, 0x73, 0x6f, 0x75, 0x72, 0x63, 0x65, 0x00,
  0x01, 0x00, 0x00, 0x00, 0x10, 0x00, 0x00, 0x00, 0x7c, 0xfd, 0xff, 0xff,
  0x5e, 0xfe, 0xff, 0xff, 0x04, 0x00, 0x00, 0x00, 0x10, 0x00, 0x00, 0x00,
  0x8c, 0xe1, 0xdf, 0xbc, 0x9b, 0x53, 0xf4, 0x3c, 0xf9, 0xeb, 0x26, 0x3d,
  0x27, 0xd4, 0x93, 0x3c, 0xee, 0xfe, 0xff, 0xff, 0x48, 0x00, 0x00, 0x00,
  0x05, 0x00, 0x00, 0x00, 0x08, 0x00, 0x00, 0x00, 0x44, 0x00, 0x00, 0x00,
  0x33, 0x00, 0x00, 0x00, 0x73, 0x65, 0x71, 0x75, 0x65, 0x6e, 0x74, 0x69,
  0x61, 0x6c, 0x2f, 0x63, 0x6f, 0x6e, 0x76, 0x32, 0x64, 0x5f, 0x32, 0x2f,
  0x42, 0x69, 0x61, 0x73, 0x41, 0x64, 0x64, 0x2f, 0x52, 0x65, 0x61, 0x64,
  0x56, 0x61, 0x72, 0x69, 0x61, 0x62, 0x6c, 0x65, 0x4f, 0x70, 0x2f, 0x72,
  0x65, 0x73, 0x6f, 0x75, 0x72, 0x63, 0x65, 0x00, 0x01, 0x00, 0x00, 0x00,
  0x04, 0x00, 0x00, 0x00, 0xf0, 0xfd, 0xff, 0xff, 0xd2, 0xfe, 0xff, 0xff,
  0x04, 0x00, 0x00, 0x00, 0x08, 0x00, 0x00, 0x00, 0x34, 0x56, 0xe5, 0xbc,
  0xe3, 0x55, 0xe5, 0x3c, 0x5a, 0xff, 0xff, 0xff, 0x48, 0x00, 0x00, 0x00,
  0x04, 0x00, 0x00, 0x00, 0x08, 0x00, 0x00, 0x00, 0x44, 0x00, 0x00, 0x00,
  0x30, 0x00, 0x00, 0x00, 0x73, 0x65, 0x71, 0x75, 0x65, 0x6e, 0x74, 0x69,
  0x61, 0x6c, 0x2f, 0x64, 0x65, 0x6e, 0x73, 0x65, 0x2f, 0x42, 0x69, 0x61,
  0x73, 0x41, 0x64, 0x64, 0x2f, 0x52, 0x65, 0x61, 0x64, 0x56, 0x61, 0x72,
  0x69, 0x61, 0x62, 0x6c, 0x65, 0x4f, 0x70, 0x2f, 0x72, 0x65, 0x73, 0x6f,
  0x75, 0x72, 0x63, 0x65, 0x00, 0x00, 0x00, 0x00, 0x01, 0x00, 0x00, 0x00,
  0x02, 0x00, 0x00, 0x00, 0x5c, 0xfe, 0xff, 0xff, 0x3e, 0xff, 0xff, 0xff,
  0x04, 0x00, 0x00, 0x00, 0x40, 0x00, 0x00, 0x00, 0x67, 0xdc, 0xb1, 0xbc,
  0x6d, 0xf8, 0xdc, 0xba, 0xba, 0x3c, 0x7b, 0xbc, 0x28, 0x16, 0xb3, 0x3c,
  0x28, 0xc8, 0x7a, 0x3d, 0x44, 0x42, 0xa2, 0x3c, 0x32, 0x51, 0x99, 0xbb,
  0x7a, 0xc0, 0xdf, 0xba, 0x83, 0x65, 0x0b, 0x3d, 0x83, 0x68, 0x76, 0x3d,
  0xdb, 0xd8, 0x4f, 0x3d, 0x0e, 0x6e, 0x1a, 0xbc, 0xdc, 0x91, 0xb0, 0xbb,
  0x88, 0xa6, 0xc9, 0x3c, 0xd2, 0x68, 0x84, 0xbb, 0xae, 0xa6, 0xb2, 0xbc,
  0x00, 0x00, 0x0e, 0x00, 0x14, 0x00, 0x04, 0x00, 0x00, 0x00, 0x08, 0x00,
  0x0c, 0x00, 0x10, 0x00, 0x0e, 0x00, 0x00, 0x00, 0x50, 0x00, 0x00, 0x00,
  0x03, 0x00, 0x00, 0x00, 0x08, 0x00, 0x00, 0x00, 0x50, 0x00, 0x00, 0x00,
  0x3b, 0x00, 0x00, 0x00, 0x73, 0x65, 0x71, 0x75, 0x65, 0x6e, 0x74, 0x69,
  0x61, 0x6c, 0x2f, 0x64, 0x65, 0x70, 0x74, 0x68, 0x77, 0x69, 0x73, 0x65,
  0x5f, 0x63, 0x6f, 0x6e, 0x76, 0x32, 0x64, 0x2f, 0x42, 0x69, 0x61, 0x73,
  0x41, 0x64, 0x64, 0x2f, 0x52, 0x65, 0x61, 0x64, 0x56, 0x61, 0x72, 0x69,
  0x61, 0x62, 0x6c, 0x65, 0x4f, 0x70, 0x2f, 0x72, 0x65, 0x73, 0x6f, 0x75,
  0x72, 0x63, 0x65, 0x00, 0x01, 0x00, 0x00, 0x00, 0x10, 0x00, 0x00, 0x00,
  0x04, 0x00, 0x06, 0x00, 0x04, 0x00, 0x00, 0x00, 0x00, 0x00, 0x06, 0x00,
  0x08, 0x00, 0x04, 0x00, 0x06, 0x00, 0x00, 0x00, 0x04, 0x00, 0x00, 0x00,
  0x08, 0x00, 0x00, 0x00, 0xff, 0xff, 0xff, 0xff, 0x40, 0x00, 0x00, 0x00,
  0x00, 0x00, 0x0e, 0x00, 0x18, 0x00, 0x08, 0x00, 0x07, 0x00, 0x0c, 0x00,
  0x10, 0x00, 0x14, 0x00, 0x0e, 0x00, 0x00, 0x00, 0x00, 0x00, 0x00, 0x02,
  0x30, 0x00, 0x00, 0x00, 0x02, 0x00, 0x00, 0x00, 0x08, 0x00, 0x00, 0x00,
  0x2c, 0x00, 0x00, 0x00, 0x18, 0x00, 0x00, 0x00, 0x73, 0x65, 0x71, 0x75,
  0x65, 0x6e, 0x74, 0x69, 0x61, 0x6c, 0x2f, 0x66, 0x6c, 0x61, 0x74, 0x74,
  0x65, 0x6e, 0x2f, 0x43, 0x6f, 0x6e, 0x73, 0x74, 0x00, 0x00, 0x00, 0x00,
  0x01, 0x00, 0x00, 0x00, 0x02, 0x00, 0x00, 0x00, 0x8c, 0xff, 0xff, 0xff,
  0x14, 0x00, 0x18, 0x00, 0x04, 0x00, 0x00, 0x00, 0x08, 0x00, 0x0c, 0x00,
  0x10, 0x00, 0x00, 0x00, 0x00, 0x00, 0x14, 0x00, 0x14, 0x00, 0x00, 0x00,
  0x40, 0x00, 0x00, 0x00, 0x01, 0x00, 0x00, 0x00, 0x20, 0x00, 0x00, 0x00,
  0x48, 0x00, 0x00, 0x00, 0x04, 0x00, 0x00, 0x00, 0x04, 0x00, 0x00, 0x00,
  0xff, 0xff, 0xff, 0xff, 0x60, 0x00, 0x00, 0x00, 0x60, 0x00, 0x00, 0x00,
  0x03, 0x00, 0x00, 0x00, 0x11, 0x00, 0x00, 0x00, 0x72, 0x65, 0x73, 0x63,
  0x61, 0x6c, 0x69, 0x6e, 0x67, 0x5f, 0x31, 0x5f, 0x69, 0x6e, 0x70, 0x75,
  0x74, 0x00, 0x00, 0x00, 0x04, 0x00, 0x00, 0x00, 0x01, 0x00, 0x00, 0x00,
  0x60, 0x00, 0x00, 0x00, 0x60, 0x00, 0x00, 0x00, 0x03, 0x00, 0x00, 0x00,
  0xfc, 0xff, 0xff, 0xff, 0x04, 0x00, 0x04, 0x00, 0x04, 0x00, 0x00, 0x00
};
const int g_person_detect_model_data_len = 12420;
